<unk>	0
<s>	0
</s>	0
<pad>	0
,	-2.91023
▁the	-3.19091
.	-3.56379
▁and	-3.81463
▁of	-3.87134
s	-3.88892
▁to	-3.98861
▁	-4.12696
▁a	-4.22349
<	-4.3252
>	-4.3252
▁in	-4.46567
▁“	-4.62407
▁that	-4.77872
▁he	-4.78972
▁I	-4.80584
bos	-4.8357
▁was	-4.85148
▁his	-4.87738
’	-4.89919
;	-4.96222
▁is	-5.12706
▁with	-5.12906
▁it	-5.13009
▁you	-5.19504
eos	-5.24014
▁had	-5.26091
▁not	-5.30074
▁for	-5.41151
▁as	-5.41458
▁on	-5.47872
▁at	-5.4961
▁be	-5.51195
ing	-5.52512
ed	-5.54541
▁him	-5.56337
-	-5.58315
▁her	-5.58316
▁which	-5.60951
.”	-5.63986
▁have	-5.667
d	-5.67473
▁said	-5.74736
▁all	-5.75271
▁but	-5.77356
▁by	-5.78319
▁this	-5.81549
▁from	-5.82291
▁my	-5.84651
▁me	-5.88009
▁The	-5.96377
▁she	-5.99874
▁one	-6.00361
▁are	-6.01677
,”	-6.01699
▁so	-6.04378
▁they	-6.05047
t	-6.05159
▁or	-6.0543
▁were	-6.07363
ly	-6.08711
▁who	-6.10919
▁will	-6.17137
!	-6.20034
▁an	-6.2179
I	-6.26835
▁we	-6.27524
—	-6.2889
?”	-6.29229
:	-6.29487
?	-6.29797
▁them	-6.31536
▁their	-6.33421
▁man	-6.33736
▁there	-6.35529
▁no	-6.35547
▁been	-6.40387
▁He	-6.42527
▁would	-6.43474
▁when	-6.44794
▁what	-6.4513
▁do	-6.50585
▁out	-6.51877
▁your	-6.51885
▁up	-6.55436
▁more	-6.6041
er	-6.61511
▁if	-6.63408
▁into	-6.64246
▁has	-6.68234
!”	-6.68526
▁then	-6.70261
y	-6.72135
e	-6.74128
▁could	-6.74943
▁now	-6.78344
▁only	-6.81139
▁did	-6.81186
▁some	-6.81401
▁like	-6.81516
▁other	-6.83726
n	-6.84554
▁very	-6.84646
The	-6.85846
▁time	-6.8595
▁about	-6.90328
▁any	-6.90547
m	-6.92437
▁‘	-6.92969
▁can	-6.93288
▁And	-6.93841
▁see	-6.94723
▁than	-6.95875
▁must	-6.96981
▁know	-6.98682
▁himself	-7.01014
▁us	-7.02028
▁It	-7.02535
▁over	-7.0322
▁our	-7.03246
▁may	-7.03587
▁two	-7.04042
▁should	-7.05878
c	-7.07289
▁before	-7.07379
▁But	-7.07418
▁little	-7.08516
▁good	-7.10693
▁old	-7.10841
▁down	-7.11416
▁am	-7.1283
es	-7.13961
▁upon	-7.16255
▁first	-7.16469
▁these	-7.16781
a	-7.18076
▁such	-7.18914
▁made	-7.19708
And	-7.2023
▁A	-7.20382
▁say	-7.20474
▁again	-7.20739
▁_	-7.21193
▁men	-7.21324
r	-7.21929
▁shall	-7.22663
▁day	-7.23526
▁way	-7.23631
▁went	-7.24474
▁go	-7.25031
▁came	-7.26622
▁come	-7.27707
▁where	-7.2839
▁own	-7.28633
▁eyes	-7.29799
▁hand	-7.30122
▁great	-7.30166
▁after	-7.3229
▁without	-7.32983
▁de	-7.33057
▁much	-7.34359
▁still	-7.3478
▁thought	-7.35405
p	-7.36326
▁long	-7.36828
al	-7.37067
in	-7.37406
▁back	-7.37944
▁those	-7.3836
▁same	-7.38749
▁how	-7.3983
▁well	-7.3984
▁M	-7.40824
▁its	-7.42607
▁here	-7.42718
▁away	-7.42906
▁head	-7.43076
▁through	-7.44376
l	-7.46019
▁life	-7.4638
▁just	-7.46578
▁father	-7.47527
_	-7.47663
▁house	-7.48172
▁even	-7.49333
re	-7.4953
▁never	-7.49589
ll	-7.49606
▁being	-7.50793
st	-7.51624
▁most	-7.51867
▁(	-7.52054
▁think	-7.52056
▁might	-7.52316
A	-7.53002
▁make	-7.53493
▁nothing	-7.53771
▁last	-7.53863
▁saw	-7.53933
▁In	-7.56356
▁un	-7.56361
▁too	-7.56605
it	-7.57268
▁young	-7.59003
▁She	-7.59123
u	-7.59564
g	-7.60023
▁door	-7.60249
▁face	-7.60389
▁left	-7.61794
▁took	-7.62682
▁every	-7.62764
▁seemed	-7.62981
▁another	-7.63129
▁work	-7.63402
ness	-7.63976
▁off	-7.64012
▁moment	-7.64167
S	-7.64291
▁room	-7.64708
▁right	-7.65061
▁night	-7.65573
▁though	-7.65627
▁take	-7.65913
▁once	-7.66841
▁heard	-7.69311
▁under	-7.69456
▁found	-7.70869
▁tell	-7.71596
▁yet	-7.71721
▁while	-7.72273
▁Then	-7.7354
▁This	-7.73831
th	-7.73845
▁people	-7.74196
)	-7.74655
▁replied	-7.74862
▁three	-7.74907
What	-7.75209
▁You	-7.75227
▁asked	-7.7537
or	-7.75395
▁looked	-7.76281
▁re	-7.7663
▁whole	-7.76757
▁let	-7.77251
▁place	-7.77556
en	-7.78974
You	-7.79794
▁began	-7.7987
▁There	-7.81046
▁whom	-7.81276
and	-7.81395
▁something	-7.81752
▁round	-7.81783
He	-7.82464
▁count	-7.82969
le	-7.83026
▁They	-7.83854
But	-7.84005
b	-7.84048
▁side	-7.84335
It	-7.84987
▁seen	-7.8525
Yes	-7.8535
▁"	-7.86229
▁get	-7.86361
▁many	-7.86389
▁give	-7.86669
--	-7.86882
f	-7.87079
▁love	-7.8713
E	-7.87605
i	-7.87718
▁look	-7.88585
ar	-7.88963
▁also	-7.89503
▁mind	-7.89921
▁Pierre	-7.89985
▁light	-7.90343
▁heart	-7.90768
▁each	-7.92022
▁always	-7.92195
▁felt	-7.93245
the	-7.93442
▁against	-7.93778
▁voice	-7.95166
▁Project	-7.95692
▁When	-7.96472
ion	-7.96688
ter	-7.96746
▁S	-7.96959
▁put	-7.96993
”	-7.97056
▁things	-7.9752
▁name	-7.97547
▁having	-7.97746
ve	-7.97769
▁dear	-7.98458
▁son	-7.9858
ur	-7.98704
▁hands	-7.98813
▁part	-7.9889
▁ever	-7.99151
▁end	-7.99425
ch	-7.99716
▁thing	-7.99788
▁far	-7.99984
▁told	-8.0081
▁world	-8.01306
▁mother	-8.01378
▁words	-8.01609
▁going	-8.01775
o	-8.02922
▁turned	-8.0312
▁soon	-8.03333
▁As	-8.03412
ic	-8.03449
▁because	-8.0386
▁done	-8.04757
▁What	-8.04793
on	-8.04817
▁both	-8.04932
an	-8.05195
▁quite	-8.05473
▁death	-8.05993
▁[	-8.06044
▁Prince	-8.06341
▁At	-8.0701
▁friend	-8.07518
▁If	-8.08393
▁cried	-8.09176
el	-8.09381
▁find	-8.09403
▁myself	-8.09822
il	-8.10014
▁between	-8.10491
▁We	-8.10651
▁set	-8.10991
▁Mr	-8.11229
▁word	-8.11524
▁called	-8.11944
▁morning	-8.12044
▁knew	-8.12533
est	-8.12948
▁order	-8.13086
▁full	-8.14137
▁cannot	-8.14204
ity	-8.15213
is	-8.15715
ers	-8.15848
▁God	-8.16571
▁gave	-8.16899
w	-8.17524
▁years	-8.17741
Well	-8.17865
No	-8.18203
▁almost	-8.1862
▁home	-8.18626
less	-8.18663
▁woman	-8.18691
▁does	-8.19251
O	-8.19484
▁half	-8.19532
▁war	-8.19563
▁towards	-8.19855
ation	-8.19894
▁few	-8.2015
us	-8.21093
▁poor	-8.21468
T	-8.21668
v	-8.21795
▁His	-8.21826
▁soul	-8.21878
▁passed	-8.22227
▁To	-8.22383
▁true	-8.22476
h	-8.22766
as	-8.23014
k	-8.23087
Oh	-8.23216
▁got	-8.23231
▁nor	-8.2342
▁anything	-8.23501
▁sea	-8.23502
▁air	-8.23642
ra	-8.23713
▁stood	-8.23739
▁o	-8.23863
▁C	-8.24185
▁alone	-8.24379
▁behind	-8.25021
▁dead	-8.25399
▁already	-8.25425
▁speak	-8.2576
▁sir	-8.25954
▁T	-8.25963
▁herself	-8.26033
▁better	-8.2632
▁don	-8.26576
▁child	-8.26708
▁sort	-8.26946
▁lay	-8.27215
▁So	-8.27546
▁fire	-8.27664
▁For	-8.2802
▁bed	-8.28313
▁taken	-8.28575
ro	-8.28817
▁thus	-8.28867
▁thy	-8.28968
▁arms	-8.29178
ne	-8.29227
able	-8.29301
▁F	-8.2937
▁water	-8.30036
▁near	-8.30184
at	-8.30432
▁sat	-8.30478
▁white	-8.30494
▁want	-8.30687
▁among	-8.30856
et	-8.30996
▁Marius	-8.31421
▁B	-8.31491
▁new	-8.31656
▁hear	-8.32154
That	-8.32417
:—	-8.32712
ent	-8.3324
▁GutenbergTM	-8.33288
▁ship	-8.335
▁French	-8.33657
M	-8.33847
▁That	-8.33919
▁open	-8.3444
▁longer	-8.34483
▁whose	-8.34512
.’	-8.3465
ry	-8.35434
▁everything	-8.36292
▁understand	-8.36332
li	-8.36725
▁days	-8.37201
▁rest	-8.37235
▁Andrew	-8.37253
▁Cristo	-8.37501
▁*	-8.37545
▁since	-8.3757
he	-8.37768
▁fell	-8.37867
▁wife	-8.38092
▁ground	-8.38321
▁black	-8.38459
▁others	-8.38693
▁small	-8.38852
▁general	-8.38959
that	-8.39123
▁matter	-8.39139
▁brought	-8.39201
▁second	-8.3948
▁till	-8.3948
In	-8.40114
▁Monte	-8.40376
▁Valjean	-8.40384
Then	-8.40787
▁army	-8.4089
▁Natásha	-8.40933
▁wish	-8.41458
▁however	-8.41666
▁fear	-8.4172
▁along	-8.41811
▁Jean	-8.41852
▁return	-8.4194
▁kind	-8.42425
▁country	-8.42453
▁saying	-8.4269
▁p	-8.43215
▁whether	-8.43516
man	-8.43633
F	-8.43719
▁table	-8.4415
▁point	-8.44283
▁four	-8.44859
P	-8.45334
▁themselves	-8.45528
▁given	-8.45813
▁leave	-8.46001
▁No	-8.46437
la	-8.46564
▁evening	-8.46567
ol	-8.46773
▁P	-8.46785
▁Villefort	-8.46874
▁looking	-8.46939
C	-8.47008
im	-8.47121
▁whale	-8.48045
▁present	-8.48055
▁together	-8.48236
ant	-8.48568
▁question	-8.48687
▁course	-8.48938
▁returned	-8.49057
ment	-8.49473
▁enough	-8.49671
CHAPTER	-8.49709
▁rather	-8.49774
▁hour	-8.49832
▁large	-8.50264
▁suddenly	-8.50784
▁smile	-8.5099
▁answered	-8.51232
se	-8.51318
D	-8.51477
▁power	-8.51495
▁sight	-8.51544
▁ask	-8.51587
▁D	-8.51707
z	-8.51803
▁girl	-8.51876
▁feet	-8.52229
▁All	-8.52314
▁state	-8.52366
▁use	-8.52649
▁gone	-8.52719
▁hundred	-8.52813
▁best	-8.52894
▁certain	-8.53321
▁help	-8.53473
There	-8.53641
To	-8.53863
▁case	-8.53984
▁thou	-8.54005
▁CHAPTER	-8.5449
ul	-8.5463
R	-8.54697
▁why	-8.54905
ate	-8.55099
un	-8.55106
▁next	-8.55292
▁entered	-8.55318
▁sun	-8.55369
▁king	-8.555
▁thousand	-8.5562
▁less	-8.56095
▁person	-8.56161
ies	-8.56342
um	-8.56398
ted	-8.56468
▁body	-8.56734
▁high	-8.56989
▁On	-8.56989
▁nature	-8.57143
▁lost	-8.57292
▁spoke	-8.57395
▁around	-8.5761
▁d	-8.57626
to	-8.57865
▁fact	-8.58068
▁1.	-8.58313
ce	-8.58544
ive	-8.58694
▁live	-8.58725
▁earth	-8.58788
▁letter	-8.5894
ling	-8.59039
▁believe	-8.591
▁sleep	-8.59238
▁reason	-8.59486
▁Cosette	-8.59761
▁either	-8.59868
▁keep	-8.599
▁really	-8.60369
Ah	-8.60567
B	-8.60773
▁idea	-8.61136
▁arm	-8.61262
▁sent	-8.61516
▁battle	-8.61596
▁short	-8.61596
▁opened	-8.61754
▁daughter	-8.61914
▁ran	-8.61974
ated	-8.62081
ia	-8.6212
ver	-8.62197
▁hope	-8.62257
▁turn	-8.62628
▁Now	-8.62686
ir	-8.62811
▁b	-8.62878
▁road	-8.62887
This	-8.63046
▁sound	-8.63055
▁heaven	-8.63122
▁perhaps	-8.63435
▁human	-8.63806
▁read	-8.64036
▁sure	-8.6427
▁form	-8.64325
▁become	-8.64369
▁within	-8.64382
▁eye	-8.64435
em	-8.64754
ful	-8.64911
▁continued	-8.64999
▁above	-8.65025
▁mean	-8.65331
My	-8.65384
▁least	-8.65387
▁blood	-8.65508
▁money	-8.6563
lo	-8.65692
▁dis	-8.65802
▁Danglars	-8.65809
▁manner	-8.65841
▁possible	-8.6587
▁c	-8.65901
me	-8.65998
▁yourself	-8.66258
▁happy	-8.6709
▁held	-8.671
▁close	-8.6722
▁strange	-8.67271
▁horse	-8.67372
▁indeed	-8.67464
▁call	-8.67525
▁remained	-8.6757
▁Ch	-8.67643
We	-8.67708
▁One	-8.67731
▁front	-8.67946
ting	-8.68552
▁enemy	-8.68575
you	-8.68769
▁wall	-8.68936
▁rose	-8.6895
▁itself	-8.69172
▁added	-8.69178
ian	-8.69475
▁became	-8.69576
▁works	-8.69613
▁window	-8.69705
te	-8.69726
▁care	-8.70002
▁“‘	-8.70112
▁coming	-8.70146
▁therefore	-8.70208
▁five	-8.70214
▁chief	-8.70297
▁answer	-8.70571
▁red	-8.70642
é	-8.70821
▁dark	-8.70923
▁times	-8.70979
▁E	-8.71145
pe	-8.71152
▁until	-8.71483
for	-8.71569
▁doubt	-8.71648
▁view	-8.71742
▁children	-8.71773
men	-8.7219
▁con	-8.72872
▁sister	-8.72972
▁Paris	-8.72979
▁free	-8.73071
▁received	-8.73212
▁G	-8.73705
▁often	-8.74172
▁means	-8.74274
▁brother	-8.7431
led	-8.74699
▁hair	-8.7515
de	-8.75185
▁truth	-8.75541
▁family	-8.76077
▁THE	-8.76432
▁O	-8.76478
▁ten	-8.76657
▁Madame	-8.76789
▁pass	-8.76874
▁fellow	-8.77193
▁husband	-8.77293
▁Rue	-8.77297
▁W	-8.77739
but	-8.77918
▁appeared	-8.77951
▁My	-8.77952
If	-8.78058
▁Rostóv	-8.78242
▁able	-8.7837
▁Emperor	-8.78609
ous	-8.78615
U	-8.78668
▁feel	-8.78759
▁friends	-8.78781
ine	-8.78815
▁hard	-8.79132
▁e	-8.79353
▁fall	-8.79592
▁Albert	-8.79817
Why	-8.80118
▁Morrel	-8.80193
▁Mary	-8.80529
▁Napoleon	-8.80625
be	-8.80708
▁fine	-8.80835
▁feeling	-8.80856
▁terrible	-8.81174
▁women	-8.81315
▁master	-8.81588
▁taking	-8.81742
▁forth	-8.82056
▁says	-8.82232
▁force	-8.82243
▁making	-8.82313
ward	-8.82681
How	-8.83156
▁die	-8.83242
▁carriage	-8.83358
ri	-8.83439
▁ready	-8.83462
When	-8.83735
▁Count	-8.8374
▁ye	-8.83746
ance	-8.83823
▁else	-8.83895
ge	-8.8392
co	-8.83961
...	-8.83963
▁foot	-8.83966
▁followed	-8.84007
_,	-8.84133
▁known	-8.8415
▁expression	-8.84353
▁past	-8.84455
▁town	-8.84923
▁cold	-8.85051
▁talk	-8.85167
▁Moscow	-8.85319
▁Do	-8.85414
▁cause	-8.85974
▁beautiful	-8.86099
▁during	-8.86406
▁bring	-8.86504
▁drew	-8.86545
▁run	-8.86753
ad	-8.86789
▁seem	-8.86894
G	-8.86978
▁deep	-8.87084
▁law	-8.87095
▁Dantès	-8.8715
▁Ulysses	-8.87367
ish	-8.87463
ph	-8.87994
▁seems	-8.88286
▁need	-8.88375
▁sometimes	-8.88809
▁reached	-8.89481
▁doctor	-8.89728
?’	-8.89778
▁line	-8.89963
▁kept	-8.90191
▁different	-8.90347
▁hold	-8.9043
ist	-8.90935
▁OF	-8.91461
▁gods	-8.9148
▁placed	-8.91722
So	-8.91894
ut	-8.92409
▁used	-8.92471
▁Elizabeth	-8.92495
na	-8.92503
▁With	-8.92676
id	-8.92801
▁land	-8.92813
▁raised	-8.92964
▁subject	-8.9323
ton	-8.93328
▁age	-8.9339
ti	-8.93449
▁prince	-8.93451
▁number	-8.93601
▁terms	-8.93704
▁pale	-8.9394
no	-8.94046
,—	-8.94065
▁pleasure	-8.94209
▁fight	-8.94222
▁silence	-8.94295
▁horses	-8.94363
▁met	-8.94809
▁cut	-8.94893
▁ch	-8.95057
▁plain	-8.95202
▁low	-8.95341
▁twenty	-8.9541
▁several	-8.95593
▁captain	-8.95758
▁garden	-8.95957
ary	-8.96043
▁V	-8.96113
▁francs	-8.9625
▁corner	-8.96306
]	-8.96492
ard	-8.96505
▁joy	-8.96706
▁ex	-8.96781
▁strength	-8.96849
▁business	-8.96908
▁ill	-8.97198
▁position	-8.97565
▁Jove	-8.97832
▁strong	-8.97879
▁third	-8.97905
She	-8.98054
▁attention	-8.98072
▁officer	-8.9809
vi	-8.98171
▁evil	-8.9824
am	-8.9839
▁clear	-8.98419
ty	-8.98562
▁electronic	-8.98738
▁wind	-8.98757
Now	-8.98887
▁account	-8.98913
▁tried	-8.98918
▁art	-8.98956
They	-8.99135
▁mouth	-8.99251
▁forward	-8.99266
▁K	-8.99443
▁fair	-8.99458
▁State	-8.9947
▁H	-8.99554
▁following	-8.99557
▁bad	-8.99613
▁justice	-8.99622
▁boy	-8.99947
▁gold	-9.00408
▁secret	-9.00443
L	-9.00707
▁happened	-9.00782
▁How	-9.0093
▁change	-9.01134
if	-9.01285
▁laid	-9.0132
▁carried	-9.01478
▁hardly	-9.01587
▁soldiers	-9.0184
▁exclaimed	-9.01855
one	-9.02012
▁opinion	-9.02172
▁doing	-9.02323
▁struck	-9.02351
▁six	-9.02489
▁remember	-9.02521
▁standing	-9.03044
▁further	-9.03048
▁sitting	-9.0306
▁happiness	-9.03224
▁turning	-9.03288
At	-9.03535
clock	-9.03924
▁Valentine	-9.03991
▁bound	-9.04511
day	-9.04848
▁w	-9.04858
▁knowledge	-9.04868
▁year	-9.04992
▁city	-9.05046
▁Nicholas	-9.05059
▁ought	-9.05191
▁certainly	-9.05202
▁led	-9.05312
▁stopped	-9.05545
."	-9.05549
▁seeing	-9.05895
▁La	-9.06138
▁impossible	-9.06265
▁watch	-9.06396
▁street	-9.06424
▁beneath	-9.06447
▁la	-9.06591
▁beside	-9.06638
▁g	-9.06682
▁real	-9.06756
ma	-9.06805
▁late	-9.0715
▁across	-9.07234
go	-9.07276
▁evidently	-9.07279
▁St	-9.07511
▁effect	-9.07545
▁living	-9.07545
▁Gutenberg	-9.07613
ba	-9.07754
As	-9.07858
▁meet	-9.07922
▁speaking	-9.08073
▁R	-9.08075
▁neither	-9.08098
ig	-9.08141
▁suppose	-9.08498
Do	-9.08642
▁rich	-9.08766
_.	-9.08909
▁common	-9.09214
▁anyone	-9.09324
ie	-9.09356
we	-9.096
▁tone	-9.09694
▁tears	-9.09876
age	-9.10029
zov	-9.10159
▁fate	-9.10326
do	-9.10468
▁crowd	-9.10575
▁wanted	-9.10821
▁drawing	-9.10979
▁Franz	-9.11264
▁field	-9.11573
▁Foundation	-9.11677
▁length	-9.12254
▁wood	-9.12589
▁visit	-9.12593
▁steps	-9.12718
▁lips	-9.12739
▁bear	-9.12758
▁wine	-9.1276
▁Her	-9.12923
up	-9.12936
!’	-9.13015
▁step	-9.13451
▁Princess	-9.13821
▁conversation	-9.14005
▁vain	-9.14009
der	-9.14243
▁arrived	-9.1432
▁silent	-9.14368
▁comes	-9.14399
▁boat	-9.14446
▁wait	-9.14506
▁glad	-9.14596
▁wild	-9.14596
▁bright	-9.146
▁moved	-9.14662
let	-9.14928
▁story	-9.14991
▁Thénardier	-9.15246
▁later	-9.15378
▁necessary	-9.15388
mi	-9.1564
▁single	-9.15652
vo	-9.15772
▁stand	-9.15874
▁show	-9.15953
▁wished	-9.15998
▁instant	-9.16162
▁l	-9.162
▁service	-9.16388
▁beginning	-9.16392
▁iron	-9.16427
▁princess	-9.16441
▁mine	-9.16661
▁closed	-9.16952
▁act	-9.17086
▁hours	-9.1711
8	-9.17132
▁Let	-9.17218
▁remain	-9.1743
For	-9.1758
▁These	-9.17597
rs	-9.17599
▁paper	-9.17826
▁chance	-9.17888
x	-9.17914
▁minutes	-9.17923
▁youth	-9.17945
▁Oh	-9.17979
▁eat	-9.18025
▁lady	-9.18072
▁pay	-9.18105
▁fixed	-9.18163
á	-9.18212
red	-9.18404
▁dinner	-9.18419
▁distance	-9.18624
▁Saint	-9.1863
▁attack	-9.1865
,"	-9.18715
▁court	-9.18749
▁Ahab	-9.18834
),	-9.18882
▁immediately	-9.18887
▁sign	-9.18946
our	-9.19163
▁Miss	-9.19207
▁pocket	-9.19299
all	-9.19564
▁train	-9.19587
▁trees	-9.19672
po	-9.1975
▁Mrs	-9.2011
▁honor	-9.20259
▁Kut	-9.20287
▁countess	-9.2031
▁glance	-9.20568
ac	-9.2063
ta	-9.20676
H	-9.20729
▁character	-9.20909
▁afraid	-9.20911
▁blue	-9.20985
▁killed	-9.21008
▁reply	-9.21122
:--	-9.21208
▁sp	-9.21216
▁appear	-9.21259
W	-9.21344
▁paid	-9.21348
▁direction	-9.21385
ot	-9.21433
3	-9.21438
▁fortune	-9.21544
▁sense	-9.21614
▁purpose	-9.21756
▁Be	-9.21785
▁sweet	-9.2192
▁won	-9.22019
▁green	-9.22061
▁peace	-9.22149
▁allow	-9.22281
mp	-9.22531
▁god	-9.22673
les	-9.23025
▁di	-9.23283
▁drink	-9.23286
▁After	-9.23292
▁Russian	-9.23548
▁desire	-9.2361
▁ago	-9.23747
▁stay	-9.23767
▁please	-9.23773
▁try	-9.23801
pi	-9.23892
▁appearance	-9.23914
▁fresh	-9.24117
▁presence	-9.24117
▁future	-9.24552
▁understood	-9.24552
▁follow	-9.24605
▁command	-9.24647
▁below	-9.24785
▁talking	-9.25139
ber	-9.25165
▁repeated	-9.2533
...”	-9.25404
▁top	-9.25495
▁yes	-9.2555
▁noble	-9.25591
On	-9.2576
▁thinking	-9.25904
▁darkness	-9.25952
▁play	-9.2598
▁public	-9.2609
▁grave	-9.26091
▁except	-9.26095
V	-9.26151
▁breast	-9.26313
▁cry	-9.26405
▁caught	-9.26536
room	-9.26658
▁none	-9.26679
▁troops	-9.26721
▁soldier	-9.26739
▁lived	-9.26763
▁floor	-9.26764
ring	-9.2695
▁send	-9.27057
▁shore	-9.27116
▁coat	-9.27168
ang	-9.27194
▁hat	-9.27194
▁threw	-9.27428
▁history	-9.2743
▁loved	-9.27476
▁spot	-9.27516
▁walked	-9.27574
ating	-9.27591
▁broken	-9.27623
▁escape	-9.27986
ier	-9.28083
▁r	-9.28132
▁dream	-9.28203
—“	-9.2838
ure	-9.28652
▁interest	-9.2873
▁car	-9.28836
▁passage	-9.29031
▁simple	-9.2924
▁deal	-9.29464
▁straight	-9.29469
▁chair	-9.29472
ence	-9.2957
so	-9.29617
▁action	-9.29625
▁danger	-9.29683
▁cast	-9.29761
▁seat	-9.29908
▁beyond	-9.29928
ck	-9.29947
▁seized	-9.30034
▁race	-9.30075
▁nearly	-9.30082
▁brave	-9.30112
▁smoke	-9.30159
tor	-9.30329
▁imp	-9.30448
▁fl	-9.30522
▁makes	-9.30653
▁Holmes	-9.30729
▁knows	-9.30738
▁glass	-9.30815
▁blow	-9.30968
ious	-9.31091
▁From	-9.31202
▁Why	-9.31214
▁sad	-9.31235
.]	-9.31237
▁enter	-9.31281
All	-9.31319
▁study	-9.31333
With	-9.31335
▁walk	-9.31341
▁waiting	-9.31554
▁natural	-9.31794
ble	-9.31879
▁By	-9.3216
nt	-9.3217
▁quickly	-9.32205
▁U	-9.32297
▁thoughts	-9.32311
▁spirit	-9.32411
▁stone	-9.32482
▁instead	-9.32497
▁laws	-9.32621
▁object	-9.32638
▁Hector	-9.32809
▁filled	-9.32961
▁heavy	-9.33203
▁orders	-9.33234
1	-9.3342
▁although	-9.33442
▁wrong	-9.33919
▁stranger	-9.33955
▁Troy	-9.34159
▁book	-9.34362
▁silver	-9.344
▁grew	-9.34406
▁shouted	-9.34479
▁regard	-9.34496
▁society	-9.34641
▁self	-9.34655
▁host	-9.34696
▁written	-9.34882
▁sky	-9.34883
▁Darcy	-9.34948
▁news	-9.35213
▁lie	-9.35335
▁scene	-9.35367
▁co	-9.35368
▁commander	-9.35521
THE	-9.3557
▁pretty	-9.3561
▁mo	-9.3563
▁Po	-9.35816
▁calm	-9.3607
▁easy	-9.36099
per	-9.36108
▁trouble	-9.36241
▁movement	-9.36301
▁post	-9.36385
ten	-9.36814
ow	-9.36958
▁agreement	-9.37102
▁An	-9.37163
ho	-9.37187
▁forest	-9.37191
▁wide	-9.37407
N	-9.37463
Come	-9.37481
que	-9.37516
Who	-9.3755
▁latter	-9.37578
op	-9.37618
ip	-9.37653
land	-9.37761
▁marriage	-9.37827
▁usual	-9.37866
▁spring	-9.38088
▁copyright	-9.38167
by	-9.38268
di	-9.38279
▁thick	-9.38303
▁middle	-9.38328
▁receive	-9.38485
7	-9.38511
▁wounded	-9.38608
ab	-9.38809
▁bit	-9.38858
▁pre	-9.3892
▁big	-9.38927
▁save	-9.39035
ru	-9.39039
▁fast	-9.3905
▁neck	-9.39081
▁duty	-9.39343
▁gentleman	-9.39348
▁merely	-9.39473
▁river	-9.39586
ial	-9.39744
ix	-9.3978
▁join	-9.4022
way	-9.40256
▁toward	-9.40486
▁spread	-9.4061
▁en	-9.40682
▁move	-9.40849
sh	-9.41173
▁blind	-9.41376
His	-9.41432
▁respect	-9.41696
▁Well	-9.41708
▁attempt	-9.41894
▁sword	-9.41896
▁Here	-9.41961
ations	-9.41977
▁outside	-9.42005
▁ancient	-9.42153
▁Sónya	-9.42156
4	-9.42169
▁meaning	-9.42229
▁bow	-9.42376
▁Yes	-9.42391
bo	-9.42527
▁greater	-9.42743
▁noticed	-9.42743
▁Caderousse	-9.42827
▁charge	-9.42854
▁covered	-9.42875
▁States	-9.42925
▁noise	-9.42945
▁probably	-9.4299
▁former	-9.43032
▁seven	-9.43157
▁Some	-9.4318
▁terror	-9.43199
▁running	-9.43209
▁Van	-9.43262
▁Denísov	-9.43685
▁officers	-9.4376
▁divine	-9.4378
▁thee	-9.43792
▁formed	-9.4381
▁getting	-9.43814
▁kill	-9.43905
▁plan	-9.44002
▁Javert	-9.4405
che	-9.44051
▁sit	-9.44058
▁giving	-9.44141
▁De	-9.44229
▁N	-9.44259
tic	-9.44285
▁quarter	-9.44368
▁warm	-9.44425
▁Ma	-9.44458
▁beauty	-9.4454
▁ho	-9.44849
▁King	-9.44883
▁slowly	-9.44884
▁leaving	-9.4506
▁Mademoiselle	-9.45129
▁le	-9.45175
▁figure	-9.45449
ON	-9.45454
▁agree	-9.45472
▁police	-9.45571
ities	-9.45591
▁died	-9.45658
▁fallen	-9.45673
▁Plato	-9.45699
Let	-9.45721
▁Alice	-9.45787
▁occasion	-9.45792
▁broad	-9.45866
Where	-9.4587
▁Thus	-9.45937
▁early	-9.46047
▁despair	-9.46133
con	-9.46155
▁rise	-9.46318
▁Achilles	-9.46362
▁asleep	-9.46404
▁afterwards	-9.46406
▁learn	-9.46438
ical	-9.46476
▁pity	-9.46533
▁passing	-9.46654
▁rage	-9.46759
▁sc	-9.47035
▁Morcerf	-9.47049
au	-9.47168
iv	-9.47183
ave	-9.47206
▁carry	-9.47402
▁Not	-9.47486
▁expected	-9.4751
▁promise	-9.47978
ER	-9.48017
▁married	-9.48046
▁reach	-9.4813
▁grand	-9.48635
▁3	-9.48846
▁servant	-9.48912
▁Or	-9.4907
▁angry	-9.49156
mo	-9.49173
▁walls	-9.49203
▁months	-9.49212
▁listened	-9.49219
▁greatest	-9.49419
Not	-9.49464
▁especially	-9.49806
▁forget	-9.49824
▁notice	-9.49838
▁trying	-9.49947
▁important	-9.5013
▁cap	-9.50154
▁dare	-9.50264
▁breath	-9.50299
▁Of	-9.50769
....	-9.50809
▁smiled	-9.50922
▁lying	-9.51038
▁surprise	-9.51068
ew	-9.5112
▁burst	-9.51127
ned	-9.51188
▁L	-9.51236
▁holding	-9.51286
▁smiling	-9.51412
▁18	-9.5154
5	-9.51614
▁dog	-9.51627
nce	-9.51676
what	-9.51692
▁box	-9.51712
ism	-9.51773
hi	-9.51776
ever	-9.51795
▁shoulders	-9.5188
▁barricade	-9.51984
ably	-9.52038
pp	-9.5216
▁cross	-9.52162
▁wise	-9.52188
▁village	-9.52277
▁pain	-9.52336
▁wonder	-9.5244
▁Who	-9.52521
▁France	-9.5269
▁eight	-9.52697
▁according	-9.52721
▁ha	-9.52786
▁piece	-9.52911
▁tree	-9.53053
▁party	-9.53123
ius	-9.5319
▁quick	-9.53207
▁dreadful	-9.53257
▁whatever	-9.53297
▁gate	-9.53547
▁gr	-9.5365
▁easily	-9.53721
▁mad	-9.53773
▁main	-9.53793
▁perfectly	-9.54191
▁regiment	-9.54243
▁draw	-9.5427
▁journey	-9.54306
▁honour	-9.54312
▁fish	-9.54533
▁pa	-9.54574
▁spite	-9.54684
ice	-9.5469
▁guard	-9.5474
▁thunder	-9.54895
▁laugh	-9.55029
▁grief	-9.55191
▁pro	-9.55314
▁grow	-9.55445
▁judge	-9.55488
▁everyone	-9.55572
▁dress	-9.55636
▁unknown	-9.55797
▁Bennet	-9.55862
va	-9.55935
▁excellency	-9.56084
▁leg	-9.56232
▁Pooh	-9.56275
Here	-9.56326
▁United	-9.56384
▁disappeared	-9.56496
ade	-9.56566
▁begin	-9.56607
▁allowed	-9.56627
▁rising	-9.56689
▁effort	-9.56764
▁minute	-9.5681
▁Whale	-9.5682
▁courage	-9.56847
▁Dorothy	-9.56854
▁serious	-9.5706
▁shadow	-9.57072
▁ideas	-9.57127
▁particular	-9.57151
▁contrary	-9.57287
▁crime	-9.57288
▁flew	-9.57297
▁English	-9.57382
▁hero	-9.57472
ions	-9.57536
▁shut	-9.5759
▁copy	-9.57799
▁bread	-9.57905
▁write	-9.57938
▁ball	-9.5802
▁pleased	-9.58072
ft	-9.58081
ng	-9.5815
▁teeth	-9.58199
▁bore	-9.58223
▁faint	-9.58235
ped	-9.58254
▁golden	-9.58273
▁sudden	-9.58278
lin	-9.58393
▁imagine	-9.58467
▁degree	-9.58505
▁company	-9.58813
▁virtue	-9.58939
▁na	-9.58941
▁brow	-9.59037
▁stop	-9.59119
▁thin	-9.5923
▁individual	-9.59254
6	-9.59286
▁chamber	-9.59299
0	-9.59316
▁Ha	-9.59331
▁horror	-9.59428
son	-9.59517
▁bar	-9.59591
ex	-9.59597
qu	-9.59605
▁ruin	-9.59708
mon	-9.59718
▁opposite	-9.59737
▁sake	-9.59741
▁br	-9.59807
▁dressed	-9.59831
▁island	-9.59853
ible	-9.6004
▁lies	-9.60124
ea	-9.60166
▁Al	-9.60216
od	-9.60317
▁various	-9.60365
▁tall	-9.60423
ron	-9.60451
▁listen	-9.60849
ke	-9.60869
▁crew	-9.60986
she	-9.6101
like	-9.61023
ub	-9.61031
tion	-9.61057
▁consider	-9.61088
▁food	-9.61303
▁shot	-9.61359
▁lower	-9.6143
▁note	-9.6154
▁advantage	-9.616
▁seek	-9.61605
▁persons	-9.61728
tri	-9.61737
▁address	-9.61788
▁result	-9.61806
Good	-9.61907
▁bottom	-9.61932
▁paragraph	-9.61932
▁proud	-9.61932
▁bent	-9.61945
▁equal	-9.61993
▁lose	-9.62
▁mortal	-9.62249
▁shook	-9.62249
▁rain	-9.62263
▁lives	-9.62331
▁bold	-9.62353
▁4	-9.62382
▁feelings	-9.62386
▁board	-9.62441
▁per	-9.62449
▁marry	-9.62499
▁showed	-9.62543
ick	-9.62787
▁shoulder	-9.62812
▁peculiar	-9.6285
▁touched	-9.62949
▁hung	-9.63045
▁appears	-9.63074
ha	-9.63157
▁writing	-9.63208
▁du	-9.63617
▁offer	-9.6364
ts	-9.63672
qui	-9.63802
▁explain	-9.6385
▁entirely	-9.63992
▁broke	-9.64074
▁events	-9.64162
▁started	-9.64203
▁deck	-9.6427
One	-9.64461
▁science	-9.645
▁soft	-9.64559
▁foe	-9.64614
▁gentlemen	-9.64841
▁drawn	-9.64844
oo	-9.6492
▁fit	-9.64965
▁break	-9.64973
▁Ho	-9.6523
▁difficulty	-9.65256
org	-9.65282
▁finished	-9.65363
▁rock	-9.65447
▁twelve	-9.65481
▁Helsing	-9.65481
▁drove	-9.65481
▁trust	-9.65481
morrow	-9.65604
▁music	-9.65747
▁touch	-9.65803
▁ourselves	-9.6581
▁stream	-9.6581
▁Bingley	-9.6581
▁prove	-9.65832
rus	-9.65932
ors	-9.6603
▁gazed	-9.66052
▁circle	-9.6614
▁worth	-9.66337
▁loud	-9.66441
▁pointed	-9.6645
▁visible	-9.66471
ff	-9.66646
▁Noirtier	-9.66664
▁legs	-9.66733
▁search	-9.6674
og	-9.66773
ak	-9.66785
▁changed	-9.66798
end	-9.66929
den	-9.66949
▁observed	-9.67044
▁creature	-9.67116
▁knees	-9.67134
▁scarcely	-9.67186
▁ear	-9.67198
▁sharp	-9.67243
▁quiet	-9.67244
not	-9.67282
▁opening	-9.67291
▁sides	-9.67328
▁meant	-9.67363
▁Captain	-9.67392
▁dust	-9.67418
▁seated	-9.67458
▁path	-9.67476
ally	-9.67486
▁po	-9.67547
IN	-9.67718
▁vast	-9.67808
▁forced	-9.67968
▁prevent	-9.68093
io	-9.68127
▁devil	-9.68143
▁storm	-9.68143
▁heads	-9.68152
▁f	-9.68233
K	-9.68416
▁fifty	-9.68481
▁affair	-9.68484
▁cloud	-9.68484
▁Le	-9.68808
▁advance	-9.68816
▁existence	-9.68826
▁cook	-9.68836
bb	-9.69075
ile	-9.69223
▁caused	-9.69312
▁questions	-9.69363
her	-9.69418
▁education	-9.69501
▁moving	-9.69501
▁aim	-9.69539
▁Re	-9.69728
▁Lord	-9.69785
▁wound	-9.69834
▁beheld	-9.69844
▁worse	-9.69844
▁fault	-9.69847
▁Monsieur	-9.69858
▁handsome	-9.69901
da	-9.70163
▁trembling	-9.70187
▁ears	-9.70207
▁decided	-9.70289
ain	-9.70426
ev	-9.70442
▁Ca	-9.7052
▁tr	-9.70527
▁learned	-9.70677
ug	-9.70732
▁snow	-9.70776
of	-9.70876
▁double	-9.7088
▁Where	-9.7088
ily	-9.70909
▁Dr	-9.71061
▁mass	-9.71178
▁knowing	-9.71286
▁frightened	-9.71303
▁inquired	-9.7134
Your	-9.71363
▁Nor	-9.71505
▁key	-9.71535
▁destroy	-9.71537
▁suffering	-9.71574
?"	-9.71937
▁simply	-9.72274
▁wrote	-9.72274
ung	-9.72291
▁ladies	-9.72292
ign	-9.72362
▁Andrea	-9.72405
▁aside	-9.72447
▁houses	-9.72455
▁Dólokhov	-9.72531
▁presented	-9.72552
Of	-9.72557
▁letters	-9.72579
▁comfort	-9.72602
▁clothes	-9.72685
side	-9.72733
uch	-9.72819
▁See	-9.72935
▁gain	-9.7296
Illustration	-9.7298
▁flight	-9.72985
▁government	-9.72992
uff	-9.73024
▁thrown	-9.73074
▁rode	-9.73083
▁Li	-9.73095
▁ships	-9.73158
▁lead	-9.73259
▁While	-9.73274
os	-9.73298
▁profound	-9.73335
▁condition	-9.73441
▁bridge	-9.73472
▁gentle	-9.73604
kin	-9.7366
▁spoken	-9.73665
▁sorrow	-9.73673
▁church	-9.73689
▁fierce	-9.7369
▁alive	-9.73698
▁Jane	-9.737
▁bird	-9.73805
▁sum	-9.73808
▁unable	-9.7391
▁walking	-9.73938
▁approached	-9.7402
▁Gregor	-9.74197
From	-9.74226
▁rushed	-9.74307
▁bank	-9.7436
▁goes	-9.74386
▁empty	-9.74406
▁period	-9.74406
▁begun	-9.74422
▁rule	-9.74495
▁didn	-9.74549
▁qu	-9.74631
gg	-9.74651
▁military	-9.74766
▁occurred	-9.74773
▁gloomy	-9.74843
▁Lucy	-9.74901
▁perceived	-9.74944
night	-9.74956
▁group	-9.75127
▁forgotten	-9.75161
▁complete	-9.7528
▁Sun	-9.75382
▁uttered	-9.75393
▁nine	-9.75503
▁cost	-9.7559
▁drive	-9.75618
▁hill	-9.75647
▁unless	-9.75741
▁support	-9.7583
▁possession	-9.75901
▁accept	-9.76197
▁occupied	-9.76218
▁fancy	-9.7622
▁share	-9.7624
ca	-9.76355
▁expect	-9.76393
▁ordered	-9.76515
▁alarm	-9.76566
▁philosophy	-9.76584
▁property	-9.76594
bus	-9.76603
▁Anna	-9.76624
▁aid	-9.7663
▁fly	-9.76646
▁engaged	-9.76692
▁stern	-9.76724
▁companion	-9.76765
Be	-9.76879
▁content	-9.76935
▁London	-9.76952
▁Madeleine	-9.77045
▁servants	-9.77059
gi	-9.771
▁comp	-9.77207
▁remembered	-9.77397
ze	-9.77406
▁crown	-9.77459
ue	-9.77543
▁health	-9.77575
gr	-9.77672
▁pleasant	-9.77691
▁space	-9.77691
▁advanced	-9.77695
▁sick	-9.77732
Go	-9.77935
▁5	-9.77964
▁Edmond	-9.77987
▁access	-9.78056
▁abbé	-9.78063
▁weak	-9.78091
ship	-9.78098
▁streets	-9.78109
▁vi	-9.78149
▁perfect	-9.78155
sk	-9.78223
▁start	-9.78247
▁nose	-9.78284
▁j	-9.78291
▁talked	-9.78294
ens	-9.78321
▁pen	-9.78366
▁remarked	-9.78388
▁sacred	-9.78436
▁spear	-9.78436
pa	-9.78452
▁bell	-9.78635
▁1	-9.7875
▁mentioned	-9.78804
▁influence	-9.7881
▁memory	-9.78811
▁ring	-9.78824
▁laughing	-9.78937
▁Bishop	-9.79186
▁curious	-9.79193
▁considered	-9.79272
▁Gavroche	-9.79406
▁delight	-9.7948
bu	-9.79563
▁donations	-9.79605
▁Borís	-9.79741
▁bare	-9.79775
▁charming	-9.79795
▁likely	-9.79847
▁clouds	-9.79939
▁midst	-9.79958
▁fashion	-9.79958
▁satisfied	-9.80033
▁Literary	-9.80076
▁trademark	-9.80077
ude	-9.8013
▁difficult	-9.80184
▁prepared	-9.802
▁habit	-9.80206
▁camp	-9.80222
▁Homer	-9.80296
▁prisoner	-9.80311
▁countenance	-9.80323
▁girls	-9.80379
▁Yet	-9.80507
low	-9.80634
▁depend	-9.80705
▁dying	-9.80706
▁mu	-9.80906
▁Louis	-9.80978
▁thirty	-9.81087
▁meeting	-9.81149
——”	-9.81276
▁glanced	-9.81331
▁circumstances	-9.81342
▁Me	-9.81361
tre	-9.81368
▁discovered	-9.81402
By	-9.81406
▁office	-9.81448
▁picture	-9.81472
▁windows	-9.81484
my	-9.81596
▁rapidly	-9.81636
how	-9.81639
▁besides	-9.8191
▁surprised	-9.81938
out	-9.82016
▁throw	-9.82134
▁Pa	-9.82142
▁papers	-9.82218
▁distant	-9.82246
▁lad	-9.82265
▁resumed	-9.82291
▁sought	-9.82419
2	-9.82519
▁month	-9.8258
▁maid	-9.82591
▁admit	-9.82614
▁emotion	-9.82635
▁march	-9.82656
▁Greece	-9.82747
▁reading	-9.82765
this	-9.82882
▁false	-9.83022
▁similar	-9.83025
▁lord	-9.83026
▁higher	-9.83104
cor	-9.83145
?—	-9.83176
▁enormous	-9.83418
▁mysterious	-9.83418
▁priest	-9.83419
▁h	-9.83419
▁mighty	-9.83442
cre	-9.83477
▁mention	-9.83525
▁pure	-9.83539
▁sand	-9.8367
An	-9.8369
▁direct	-9.837
▁ma	-9.83766
▁affairs	-9.83808
▁breakfast	-9.83811
▁glory	-9.83812
▁supper	-9.83813
▁suitors	-9.83817
▁safe	-9.83834
▁fill	-9.8386
▁star	-9.83939
▁happen	-9.84172
▁excellent	-9.84207
▁language	-9.84207
ueequeg	-9.84207
▁suffer	-9.84216
▁v	-9.84237
▁obliged	-9.84254
▁experience	-9.84261
EN	-9.8429
▁sacrifice	-9.84367
▁Archive	-9.84461
ess	-9.84589
▁melancholy	-9.84603
▁yield	-9.84615
▁lines	-9.84664
Y	-9.84672
▁behold	-9.84716
▁served	-9.84855
nd	-9.84985
▁Stubb	-9.85002
▁sprang	-9.85002
▁yellow	-9.85002
▁clearly	-9.85141
▁beat	-9.85231
▁places	-9.85237
act	-9.85339
ook	-9.85347
▁waited	-9.85384
▁hall	-9.855
ga	-9.85532
ris	-9.85726
▁example	-9.85803
▁uniform	-9.85803
▁week	-9.85878
▁laughed	-9.85926
▁Fauchelevent	-9.86065
▁mi	-9.86197
▁shock	-9.86207
▁speech	-9.86207
▁sing	-9.86317
▁expressed	-9.86586
▁treasure	-9.86612
▁offered	-9.86735
▁generally	-9.86791
▁voices	-9.86845
▁paused	-9.86867
▁produced	-9.86891
lus	-9.86923
mer	-9.86977
▁hole	-9.86992
▁Such	-9.87016
▁finger	-9.87063
house	-9.87138
▁parts	-9.87142
▁fatal	-9.87163
▁recognized	-9.87295
tes	-9.87411
▁roof	-9.87427
▁intention	-9.87459
▁lance	-9.87475
▁evident	-9.87609
ning	-9.87742
▁unhappy	-9.87836
▁Gatsby	-9.87981
ire	-9.88088
▁express	-9.8822
▁clean	-9.88248
▁pride	-9.8825
▁fond	-9.88251
▁spent	-9.88295
▁faces	-9.88376
▁inter	-9.88653
▁hot	-9.88654
▁situation	-9.88661
▁special	-9.88661
▁square	-9.88661
▁acquaintance	-9.88662
▁lo	-9.88662
▁permission	-9.88662
Very	-9.88707
▁Ph	-9.8873
▁fr	-9.88823
▁fields	-9.88904
▁slain	-9.89076
▁difference	-9.89078
▁Trojan	-9.89127
▁provide	-9.89148
▁flowers	-9.89163
▁Pétya	-9.8925
▁Your	-9.8933
▁Go	-9.89372
▁motion	-9.89476
▁pistol	-9.89492
▁obey	-9.89525
▁approach	-9.89546
▁report	-9.89616
▁interrupted	-9.89631
verse	-9.89715
▁pressed	-9.89723
IS	-9.89769
▁narrow	-9.89911
▁addressed	-9.90002
ou	-9.90027
▁reader	-9.90043
▁dance	-9.90061
row	-9.90134
▁lot	-9.90188
▁burning	-9.90221
▁author	-9.90294
▁explanation	-9.90331
▁monster	-9.90332
▁proof	-9.9034
▁everybody	-9.90345
▁information	-9.90346
▁beast	-9.90349
▁promised	-9.90434
▁cart	-9.90438
▁nearer	-9.90571
▁someone	-9.906
▁harm	-9.90605
▁immense	-9.90753
▁mere	-9.90787
▁Ba	-9.90793
▁Maximilian	-9.91014
▁Un	-9.91045
▁mistake	-9.91075
▁check	-9.91177
▁singular	-9.91178
▁Father	-9.91197
▁vessel	-9.91273
▁due	-9.91348
ran	-9.91352
par	-9.91407
▁des	-9.91474
▁required	-9.91492
▁Tz	-9.91707
▁listening	-9.91716
▁Ah	-9.91787
▁falling	-9.91962
▁rear	-9.91973
▁Greek	-9.91999
teau	-9.92007
▁yesterday	-9.92029
▁dropped	-9.92035
▁tail	-9.92037
▁However	-9.9208
▁Petersburg	-9.9216
▁carefully	-9.92167
▁saved	-9.92185
▁particularly	-9.92351
▁Greeks	-9.92361
▁sons	-9.92424
▁arrival	-9.92459
ING	-9.92477
▁cat	-9.92539
▁Vasíli	-9.92604
law	-9.92621
▁mist	-9.92721
▁hearing	-9.92729
▁AND	-9.9281
▁tw	-9.92825
▁success	-9.9284
▁proceed	-9.92972
▁powers	-9.92984
▁worthy	-9.93046
▁gun	-9.93083
▁Telemachus	-9.93192
▁pray	-9.93255
▁argument	-9.93323
▁liberty	-9.93323
▁watched	-9.93375
▁Ro	-9.93388
▁forms	-9.93414
▁removed	-9.93465
▁taste	-9.93578
▁Just	-9.93579
—”	-9.93645
▁haste	-9.9373
▁honest	-9.93758
▁grandfather	-9.9376
▁cannon	-9.93765
▁affection	-9.93781
▁conceal	-9.93807
▁settled	-9.93919
▁bowed	-9.93966
▁remains	-9.94172
▁immortal	-9.94194
▁tongue	-9.94196
▁forehead	-9.94198
▁tale	-9.94199
▁event	-9.94211
▁Con	-9.94343
▁inside	-9.94347
▁amid	-9.94374
▁mark	-9.9442
!—	-9.94465
ite	-9.94514
▁kissed	-9.9454
▁confess	-9.94585
ger	-9.94616
▁stupid	-9.94633
▁sorry	-9.94634
▁firm	-9.94678
ye	-9.94722
ping	-9.94748
▁Tom	-9.94759
ler	-9.94801
▁lifted	-9.94846
▁Mercédès	-9.94875
▁original	-9.94886
▁height	-9.95079
br	-9.95105
▁Come	-9.95107
▁watching	-9.9515
▁brain	-9.95265
▁remark	-9.95294
▁wear	-9.95316
▁matters	-9.95385
tro	-9.95388
▁looks	-9.95415
light	-9.95478
rate	-9.95513
▁shape	-9.95519
J	-9.95551
Certainly	-9.9571
▁Co	-9.9574
▁song	-9.95784
▁prison	-9.95798
old	-9.95858
▁possessed	-9.95872
▁grown	-9.95876
▁miserable	-9.9596
▁private	-9.9596
▁German	-9.9596
▁huge	-9.95961
▁misery	-9.95963
▁wake	-9.95963
▁mis	-9.96066
▁lock	-9.96147
cle	-9.96295
▁wonderful	-9.96295
▁wishes	-9.96342
Ch	-9.96362
▁fool	-9.96404
Because	-9.96407
▁absence	-9.96407
▁opportunity	-9.96407
▁believed	-9.96418
▁tear	-9.96493
▁Sa	-9.96495
▁tea	-9.96571
▁superior	-9.96826
▁modern	-9.96855
▁slave	-9.96856
▁gives	-9.96893
▁Beauchamp	-9.97029
▁peasant	-9.97081
▁sail	-9.97122
▁tomorrow	-9.97136
▁forty	-9.97172
▁shadows	-9.97176
▁supposed	-9.97236
Is	-9.97258
▁Grecian	-9.97305
OR	-9.97352
▁weight	-9.97406
▁par	-9.97427
▁descend	-9.97429
▁roll	-9.97432
▁John	-9.97443
▁exactly	-9.97454
▁previous	-9.9753
▁fingers	-9.97746
▁secure	-9.97758
▁fury	-9.97828
▁conduct	-9.97829
▁moon	-9.97861
▁Gillenormand	-9.97866
▁growing	-9.97906
ju	-9.98076
▁whales	-9.98154
▁blame	-9.98213
▁attend	-9.98251
▁2	-9.98283
▁useless	-9.98334
▁waves	-9.98339
fer	-9.98388
▁request	-9.98669
ified	-9.98685
▁unjust	-9.98693
ans	-9.98716
▁loss	-9.98719
▁avoid	-9.9874
▁fail	-9.98764
Pierre	-9.98892
▁quietly	-9.9898
▁Don	-9.98983
▁beg	-9.99098
í	-9.99128
▁dawn	-9.99128
▁pick	-9.99235
▁measure	-9.99244
▁Only	-9.99417
sha	-9.99436
▁experienced	-9.99528
▁counsel	-9.99588
▁choose	-9.99589
▁sub	-9.99607
▁require	-9.99703
▁shame	-9.99782
▁cover	-9.99809
▁speed	-10.0005
▁curiosity	-10.0005
▁voyage	-10.0005
▁method	-10.0005
use	-10.0006
▁wore	-10.0006
▁tower	-10.002
▁rum	-10.0028
▁ideal	-10.0029
▁takes	-10.004
▁asking	-10.0042
▁Chapter	-10.0047
▁design	-10.0051
▁century	-10.0052
▁nurse	-10.0052
▁entrance	-10.0052
▁claim	-10.0053
[	-10.0059
▁gaze	-10.0064
▁somewhat	-10.007
ette	-10.007
▁add	-10.0074
▁Their	-10.0075
▁ceased	-10.0078
AN	-10.0095
▁including	-10.0098
▁IN	-10.01
▁described	-10.0118
Have	-10.0129
▁horrible	-10.0145
ide	-10.0145
▁grass	-10.0146
▁trans	-10.0148
Or	-10.0153
▁heroes	-10.0159
▁retreat	-10.0161
jo	-10.0173
▁whispered	-10.0174
▁proper	-10.0177
▁principle	-10.0186
▁rope	-10.0186
▁necessity	-10.0193
▁thrust	-10.0193
▁labour	-10.0193
▁class	-10.0194
▁victory	-10.0199
▁greatly	-10.0203
▁dart	-10.0204
▁observe	-10.0206
▁sigh	-10.0217
head	-10.0228
rit	-10.0231
▁strike	-10.024
▁guide	-10.024
▁mingled	-10.0247
▁Scarecrow	-10.025
▁dry	-10.0253
▁TO	-10.0259
▁books	-10.0282
▁discover	-10.0285
▁clever	-10.0288
▁fetch	-10.0288
▁mankind	-10.0288
▁game	-10.0288
▁angel	-10.0288
ski	-10.029
▁instantly	-10.0294
▁chest	-10.0297
dam	-10.0297
king	-10.0304
▁thank	-10.0304
ons	-10.0312
board	-10.0313
▁band	-10.0325
▁wolf	-10.0335
▁task	-10.0335
▁arise	-10.0339
Are	-10.035
are	-10.0357
▁spirits	-10.0362
▁succeeded	-10.0365
▁mate	-10.037
▁possess	-10.0378
▁familiar	-10.0383
▁shield	-10.0383
▁throat	-10.0383
▁feared	-10.0385
▁impression	-10.0387
▁Mina	-10.0389
▁freedom	-10.0432
▁grace	-10.044
▁Lo	-10.0442
art	-10.0448
▁understanding	-10.045
▁fighting	-10.0454
▁shown	-10.0457
▁anxious	-10.0458
▁Had	-10.0464
ao	-10.0465
▁born	-10.0467
▁shade	-10.0472
AR	-10.0479
▁strain	-10.0481
▁flow	-10.0487
▁agreed	-10.0494
▁telling	-10.0497
▁crossed	-10.0497
ww	-10.0497
▁obtain	-10.05
there	-10.0509
▁guns	-10.0513
▁6	-10.0518
▁hollow	-10.0529
▁slept	-10.0529
▁instance	-10.0529
▁woe	-10.053
▁farther	-10.0532
▁pair	-10.0533
▁kiss	-10.0539
▁intended	-10.0544
▁scar	-10.0552
▁anger	-10.0553
▁dread	-10.056
▁twice	-10.0579
▁lamp	-10.0582
▁flies	-10.0583
▁convinced	-10.0586
▁Anatole	-10.0592
▁putting	-10.0593
ack	-10.0603
▁cloth	-10.0605
▁entering	-10.0612
▁date	-10.062
▁birth	-10.0627
▁monarch	-10.0627
▁edge	-10.063
▁motionless	-10.0631
▁prize	-10.0631
▁Minerva	-10.0638
ians	-10.0645
▁completely	-10.0658
ress	-10.0666
▁descended	-10.067
▁advice	-10.0677
▁cloak	-10.0677
▁ease	-10.0678
▁tomb	-10.0678
▁demand	-10.0684
Mr	-10.0684
▁excited	-10.0686
▁boats	-10.0692
▁pulled	-10.0696
▁catch	-10.0696
▁Silver	-10.0698
▁keeping	-10.07
▁slight	-10.0705
▁names	-10.0713
▁concealed	-10.0721
▁adjutant	-10.0727
▁progress	-10.0727
Thank	-10.0727
▁pardon	-10.0727
▁considerable	-10.0731
▁delay	-10.0731
▁reality	-10.0735
▁cur	-10.0735
▁dogs	-10.0736
▁reproach	-10.0737
▁states	-10.0737
▁determined	-10.0741
ple	-10.0742
▁produce	-10.0742
▁raise	-10.0742
tin	-10.0754
▁Bo	-10.0756
▁suit	-10.0764
Thus	-10.0766
▁suffered	-10.0775
▁Piglet	-10.0777
▁bottle	-10.0777
▁chariot	-10.0777
▁mistaken	-10.0789
Alas	-10.0792
Project	-10.0817
▁Enjolras	-10.0817
ult	-10.0822
utenberg	-10.0824
▁Mar	-10.0825
▁wicked	-10.0827
▁level	-10.0827
▁tax	-10.0828
▁port	-10.0829
▁personal	-10.0833
▁recognize	-10.0843
▁License	-10.0845
▁concerning	-10.0855
Ma	-10.0856
▁wretched	-10.0859
read	-10.086
▁birds	-10.0861
After	-10.0868
▁row	-10.0871
▁marked	-10.0872
▁directed	-10.0876
▁Even	-10.0877
▁defend	-10.0877
▁stars	-10.0882
▁ranks	-10.0882
▁surrounded	-10.0889
▁aware	-10.0889
▁prepare	-10.0894
▁contain	-10.0902
▁escaped	-10.0904
ner	-10.0906
▁mast	-10.0912
BOOK	-10.0919
▁conscience	-10.0928
▁departure	-10.0929
▁winter	-10.0931
▁madame	-10.0932
▁fame	-10.0933
▁fa	-10.0937
ich	-10.0939
▁leaves	-10.0941
▁pushed	-10.0943
▁moments	-10.0944
▁prisoners	-10.0948
▁violent	-10.0956
▁bitter	-10.0964
▁lighted	-10.0967
▁cheerful	-10.0978
▁Debray	-10.0979
▁credit	-10.0979
▁cousin	-10.0979
▁extraordinary	-10.098
"	-10.0991
▁finally	-10.0995
▁shoes	-10.0997
▁Catherine	-10.0999
▁solemn	-10.1005
▁General	-10.1006
▁directly	-10.1009
▁Y	-10.1012
▁Can	-10.1016
▁lofty	-10.103
▁ocean	-10.103
▁phrase	-10.103
▁regular	-10.103
▁distress	-10.103
▁goddess	-10.103
▁pieces	-10.1033
▁explained	-10.104
▁highest	-10.1044
▁fix	-10.1045
▁Are	-10.1053
▁hide	-10.1055
▁assured	-10.1062
▁fee	-10.1068
Jean	-10.1076
▁fifteen	-10.1082
▁rough	-10.1083
▁summer	-10.1083
▁bearing	-10.1086
▁dull	-10.1092
▁absolutely	-10.1102
▁murmured	-10.1105
▁using	-10.1114
▁Two	-10.1118
ched	-10.1128
▁royal	-10.1132
▁savage	-10.1134
▁value	-10.1134
▁praise	-10.1134
▁excuse	-10.1134
▁hastily	-10.1134
▁confidence	-10.1134
▁feast	-10.1134
▁severe	-10.1135
▁Lion	-10.1148
rk	-10.1165
▁corpse	-10.117
▁Pi	-10.1173
ash	-10.1178
ó	-10.1184
▁sire	-10.1184
▁staff	-10.1186
▁unfortunate	-10.1186
▁singing	-10.1187
▁lightning	-10.1191
▁flame	-10.1192
▁shudder	-10.12
▁render	-10.1209
▁entire	-10.1216
▁tender	-10.1221
his	-10.1226
▁souls	-10.1226
▁approaching	-10.1235
▁Tu	-10.1239
▁utter	-10.1241
▁accustomed	-10.1241
▁Th	-10.1242
▁drop	-10.1244
▁misfortune	-10.1245
▁mountain	-10.1246
▁stretch	-10.1252
▁parents	-10.1258
oc	-10.1268
▁Besides	-10.1279
▁becomes	-10.1285
which	-10.1288
▁Rome	-10.129
▁coffin	-10.1291
▁splendid	-10.1291
▁truly	-10.1291
▁queen	-10.1291
▁flying	-10.1295
▁stands	-10.13
▁poet	-10.1305
▁wretch	-10.1305
▁miles	-10.1327
▁Every	-10.1338
car	-10.1339
gu	-10.1341
Monsieur	-10.1342
▁wedding	-10.1344
▁proved	-10.1346
▁III	-10.1351
▁station	-10.1361
▁school	-10.1362
ments	-10.1369
ught	-10.1369
▁rush	-10.1372
▁exist	-10.1374
▁colour	-10.1386
ied	-10.1394
▁famous	-10.1397
▁Collins	-10.1397
▁afternoon	-10.1397
▁estate	-10.1397
zz	-10.1399
▁everywhere	-10.14
▁authority	-10.1401
who	-10.1403
▁destroyed	-10.1403
▁whence	-10.1421
▁rapid	-10.1425
▁heat	-10.1427
▁heap	-10.1432
▁owner	-10.1433
▁Mu	-10.1449
▁sovereign	-10.145
some	-10.145
▁arranged	-10.1465
▁combat	-10.1466
fu	-10.1474
▁burn	-10.1487
▁rendered	-10.149
▁aunt	-10.1491
rge	-10.1495
ES	-10.1499
▁loose	-10.1505
▁sentence	-10.1508
▁laughter	-10.1511
▁centre	-10.1512
▁spare	-10.1514
▁hopes	-10.1517
▁groan	-10.1519
▁sur	-10.1521
▁passion	-10.1529
▁eBook	-10.1537
▁sa	-10.1556
▁division	-10.1558
▁official	-10.1558
▁frame	-10.1559
▁pipe	-10.1559
▁veil	-10.1559
▁fe	-10.1559
▁dangerous	-10.1562
▁associated	-10.1565
fa	-10.1576
▁Though	-10.1577
▁refuse	-10.1578
▁serve	-10.1578
▁sleeping	-10.1584
▁vague	-10.159
ric	-10.1603
▁generous	-10.1613
▁shirt	-10.1613
▁style	-10.1613
▁stepped	-10.1615
igh	-10.1619
▁Socrates	-10.1629
▁pause	-10.1634
▁carrying	-10.1637
▁regarded	-10.1645
▁picked	-10.1658
▁rolled	-10.1659
▁conscious	-10.1662
rr	-10.1664
▁occur	-10.1666
▁accompanied	-10.1667
▁smell	-10.1667
▁couple	-10.1667
▁hurt	-10.1667
▁genius	-10.1668
▁accepted	-10.167
▁nice	-10.1672
These	-10.1678
tu	-10.1684
oon	-10.1685
▁7	-10.1685
ging	-10.1705
▁liked	-10.1707
▁wealth	-10.171
▁wisdom	-10.1722
▁sewer	-10.1722
▁project	-10.1722
▁otherwise	-10.1727
▁relation	-10.1741
▁deserted	-10.1753
aving	-10.1754
▁demanded	-10.1765
▁gloom	-10.1766
ais	-10.1767
▁confused	-10.1777
▁social	-10.1778
▁tired	-10.1778
▁furious	-10.1778
▁skill	-10.1778
▁connection	-10.1779
ock	-10.179
▁worn	-10.18
▁assure	-10.1801
▁useful	-10.1808
▁sheet	-10.1808
▁fled	-10.1818
cy	-10.1821
▁fat	-10.1822
ory	-10.1831
gue	-10.1831
▁England	-10.1833
▁convent	-10.1833
▁shop	-10.1836
▁rang	-10.1837
val	-10.1839
Chapter	-10.1839
Marius	-10.1839
▁somewhere	-10.184
own	-10.185
▁Wickham	-10.1851
▁sufficient	-10.1866
▁travel	-10.1885
▁possibly	-10.1889
▁poison	-10.1889
▁skies	-10.1889
▁Woodman	-10.1889
▁continually	-10.1896
▁resolved	-10.1899
▁fully	-10.1903
▁building	-10.1903
▁Professor	-10.1904
▁Starbuck	-10.1907
▁shouting	-10.1908
.)	-10.1914
▁deeply	-10.1918
▁rate	-10.1923
ized	-10.1924
▁shake	-10.1935
▁amount	-10.1945
▁brilliant	-10.1945
▁refund	-10.1945
▁shining	-10.1945
▁lit	-10.1955
▁murder	-10.1967
▁beam	-10.1969
ina	-10.1995
▁Gr	-10.2001
▁copies	-10.2002
▁gazing	-10.2002
▁Lydia	-10.2002
▁image	-10.2002
▁hidden	-10.2002
Prince	-10.2005
▁today	-10.2015
▁gathered	-10.2019
eous	-10.2019
▁arrive	-10.2024
▁Jonathan	-10.2024
▁warrior	-10.2026
._--	-10.2049
While	-10.2068
ui	-10.2072
▁Lady	-10.2078
des	-10.2086
▁upper	-10.2092
▁extreme	-10.2093
▁tu	-10.2101
▁moral	-10.2113
▁column	-10.2116
▁imagination	-10.2116
▁native	-10.2116
▁den	-10.2119
▁sounds	-10.212
work	-10.2126
▁Nothing	-10.2129
▁20	-10.2132
▁castle	-10.2132
▁Our	-10.2151
▁efforts	-10.2158
rin	-10.217
▁quarrel	-10.2173
▁victim	-10.2173
▁weapon	-10.2173
▁correct	-10.2173
▁weather	-10.2173
▁traveller	-10.2174
fin	-10.2175
▁conception	-10.2175
Indeed	-10.2175
▁store	-10.2175
▁lovely	-10.2179
▁cabin	-10.218
tree	-10.2186
▁leaning	-10.219
they	-10.219
▁continue	-10.2196
▁Did	-10.22
▁Fantine	-10.22
▁trace	-10.2205
ny	-10.221
▁equally	-10.2214
▁freely	-10.2216
▁[_	-10.2222
▁com	-10.2229
▁powerful	-10.2231
▁eternal	-10.2231
▁gesture	-10.2231
▁injustice	-10.2231
▁ordinary	-10.2231
▁physical	-10.2231
▁spoil	-10.2231
▁stick	-10.2231
▁fruit	-10.2232
▁gray	-10.2232
▁wings	-10.2233
▁Ar	-10.2233
ening	-10.2245
▁sin	-10.2252
aw	-10.2253
▁Fernand	-10.2257
▁faith	-10.2258
▁peasants	-10.226
▁named	-10.2265
▁hurried	-10.2266
▁IV	-10.2271
▁Car	-10.2274
▁writer	-10.2281
▁oil	-10.2283
▁aloud	-10.2289
▁consequence	-10.2289
▁consent	-10.2289
ries	-10.2301
▁touching	-10.2302
▁cheeks	-10.2302
▁enjoy	-10.2303
▁retired	-10.2318
nu	-10.232
▁points	-10.2323
▁absolute	-10.2325
▁hate	-10.2325
gar	-10.2326
"]	-10.2335
ail	-10.2337
ey	-10.2339
▁temper	-10.2339
aking	-10.234
▁astonishment	-10.2347
▁patient	-10.2347
▁gay	-10.2348
▁cries	-10.235
▁pour	-10.2356
▁forces	-10.2361
▁reward	-10.2365
La	-10.2369
▁millions	-10.2391
▁stronger	-10.2394
▁provided	-10.2396
▁ghost	-10.2406
▁innocent	-10.2406
▁entreat	-10.2406
▁prefer	-10.2406
▁pack	-10.2409
▁page	-10.2416
God	-10.2419
▁lest	-10.2431
pped	-10.2435
▁guests	-10.2438
▁animal	-10.244
▁stairs	-10.2441
▁Still	-10.2443
▁candle	-10.2464
Don	-10.2465
▁Pequod	-10.2465
▁adventure	-10.2465
▁capital	-10.2465
▁match	-10.2469
▁nail	-10.2472
▁dared	-10.248
▁ere	-10.2487
▁turns	-10.2501
Ha	-10.2512
▁actions	-10.252
SE	-10.252
▁buried	-10.2525
▁wholly	-10.2526
▁Russia	-10.2528
▁returning	-10.2533
▁attached	-10.2536
▁calling	-10.2537
ther	-10.2538
▁Daisy	-10.2542
▁knife	-10.2554
▁lion	-10.2556
00	-10.2559
port	-10.256
▁conquer	-10.2566
▁finding	-10.2567
▁played	-10.2569
ham	-10.2571
was	-10.2576
▁gently	-10.2585
lac	-10.2586
▁frightful	-10.2592
▁leading	-10.2592
▁wheel	-10.2601
▁finish	-10.2606
▁Was	-10.2609
ency	-10.2613
tte	-10.2616
▁nations	-10.2619
▁custom	-10.2644
▁instinct	-10.2645
▁destruction	-10.2645
▁muttered	-10.2645
▁importance	-10.2646
▁sheep	-10.2648
even	-10.2648
▁coward	-10.265
▁cool	-10.265
▁skin	-10.2651
▁Bolkónski	-10.2658
▁calls	-10.2665
Nor	-10.2673
▁kindness	-10.2675
race	-10.268
du	-10.268
▁desired	-10.2681
fold	-10.2685
have	-10.2691
don	-10.2692
▁bid	-10.2693
▁Robin	-10.2706
▁aspect	-10.2706
▁ignorant	-10.2706
▁lover	-10.2707
▁handed	-10.2719
▁driven	-10.2723
▁pursue	-10.2732
▁profit	-10.2735
tis	-10.2738
Sir	-10.2741
▁Ali	-10.2748
elle	-10.2765
▁palace	-10.2767
▁risk	-10.2767
▁insult	-10.277
▁Tr	-10.277
▁cup	-10.2772
▁Great	-10.2773
▁minds	-10.2777
ered	-10.2785
▁increased	-10.2788
▁cease	-10.2794
▁joined	-10.2798
▁doors	-10.2804
▁interesting	-10.2812
time	-10.2821
▁surely	-10.2822
▁hearts	-10.2822
▁conclusion	-10.2828
▁distributing	-10.2828
▁prayer	-10.2828
▁vision	-10.2828
▁disposition	-10.2829
▁eating	-10.2829
▁delighted	-10.2829
▁pointing	-10.283
▁acquainted	-10.2831
▁chase	-10.2832
▁Good	-10.2835
cul	-10.2836
cri	-10.2841
▁Br	-10.2841
▁wave	-10.2841
with	-10.2852
▁concerned	-10.2861
▁boots	-10.2869
form	-10.2875
▁universal	-10.289
▁staircase	-10.289
▁flesh	-10.289
▁flood	-10.289
▁committed	-10.2891
▁spend	-10.2892
▁New	-10.2894
▁yard	-10.2898
▁extended	-10.2906
▁pile	-10.2907
ction	-10.2923
▁playing	-10.2939
▁desperate	-10.2952
▁bosom	-10.2952
▁forgive	-10.2952
▁grey	-10.2953
▁gained	-10.2958
▁uncle	-10.2959
▁Cavalcanti	-10.2965
▁built	-10.2971
▁dressing	-10.2973
▁struggle	-10.298
▁mount	-10.2981
can	-10.2981
▁hanging	-10.2985
▁stretched	-10.2998
▁contained	-10.2999
▁Have	-10.3003
▁fro	-10.3008
▁triumph	-10.3012
▁colonel	-10.3014
▁enemies	-10.3014
▁located	-10.3014
▁minister	-10.3014
▁proportion	-10.3014
▁raising	-10.3014
▁hum	-10.3017
▁error	-10.3019
▁Alexander	-10.3031
▁kindly	-10.3037
▁roar	-10.3039
Just	-10.3041
ST	-10.3066
▁VI	-10.3074
▁May	-10.3076
IT	-10.3076
▁comply	-10.3076
▁Ajax	-10.3077
▁confusion	-10.3077
▁tyrant	-10.3077
▁gleam	-10.3077
▁swell	-10.308
fully	-10.3081
▁creatures	-10.3082
▁becoming	-10.309
▁X	-10.3092
▁angle	-10.3092
▁grasp	-10.3102
▁fourth	-10.3105
▁separate	-10.3106
▁erect	-10.3109
▁faithful	-10.3111
▁numbers	-10.3117
._	-10.3119
▁whisper	-10.3125
ley	-10.3138
▁regret	-10.3138
▁revolution	-10.314
▁anxiety	-10.3141
▁surface	-10.3141
▁arose	-10.3141
▁hideous	-10.3143
now	-10.3158
▁wit	-10.3159
▁Arthur	-10.316
▁succeed	-10.3165
▁jumped	-10.3167
▁needed	-10.3174
▁shed	-10.3175
▁swift	-10.3177
▁mounted	-10.318
▁depths	-10.3182
▁slow	-10.3187
è	-10.3199
▁accident	-10.3204
▁working	-10.3204
▁medium	-10.3204
▁weeks	-10.3207
▁guilty	-10.321
ah	-10.3216
▁fore	-10.3222
▁30	-10.3231
▁employed	-10.3239
▁Heaven	-10.325
▁facts	-10.3262
▁sailor	-10.3264
▁kitchen	-10.3268
▁wrath	-10.3268
▁coast	-10.3268
▁straw	-10.3268
▁busy	-10.3269
▁bench	-10.3269
._]	-10.327
▁branches	-10.3275
▁West	-10.3278
▁Da	-10.3283
iness	-10.3295
▁seeking	-10.3298
▁porter	-10.3298
▁charm	-10.3306
▁relations	-10.3311
▁stones	-10.3316
▁flower	-10.3317
▁remaining	-10.3329
▁“_	-10.3331
▁campaign	-10.3333
▁political	-10.3333
▁revenge	-10.3333
▁welcome	-10.3333
▁steel	-10.3333
▁Harker	-10.3333
▁merry	-10.3333
▁permitted	-10.3334
▁Oz	-10.3343
▁meat	-10.3349
▁exception	-10.3353
▁restrain	-10.3356
▁consideration	-10.3361
▁Courfeyrac	-10.3362
Natásha	-10.3366
▁whenever	-10.3368
▁Martians	-10.337
will	-10.3385
▁drag	-10.3394
▁council	-10.3398
▁pursuit	-10.3398
▁problem	-10.3398
▁worst	-10.3398
▁distinguish	-10.3398
▁agent	-10.3402
▁pot	-10.3408
▁rooms	-10.3409
▁thanks	-10.3416
▁flash	-10.3417
tain	-10.3422
▁hurry	-10.3423
▁luck	-10.3452
hy	-10.3453
cher	-10.3455
ras	-10.3456
▁chin	-10.3458
▁favour	-10.346
▁intelligence	-10.3463
▁vengeance	-10.3463
▁flank	-10.3463
▁features	-10.3464
▁gradually	-10.3465
▁Having	-10.347
cus	-10.3479
▁George	-10.3479
UN	-10.3479
▁rank	-10.3483
▁Will	-10.3485
RE	-10.3502
▁waters	-10.3503
▁dim	-10.3509
▁Yu	-10.3521
▁paces	-10.3521
▁powder	-10.3529
▁resolution	-10.3529
▁grateful	-10.3529
▁awful	-10.3532
▁Hélène	-10.3545
▁assumed	-10.3554
▁flag	-10.3558
▁se	-10.3568
▁Ga	-10.3571
▁elder	-10.3572
love	-10.3573
▁steeds	-10.3576
▁OR	-10.3579
LE	-10.3582
uck	-10.3583
▁fleet	-10.3594
▁Rabbit	-10.3595
▁chosen	-10.3602
▁Republic	-10.3607
▁Patroclus	-10.3612
▁examined	-10.3614
▁represent	-10.3623
▁satisfaction	-10.363
▁pursued	-10.3633
▁bones	-10.3636
▁hence	-10.365
▁painful	-10.3651
▁naturally	-10.366
▁apartment	-10.3661
▁stroke	-10.3662
▁mistress	-10.3662
▁capable	-10.3668
▁sell	-10.3669
▁composed	-10.367
▁wooden	-10.3676
▁attitude	-10.3679
▁eagerly	-10.3682
▁Jondrette	-10.3684
▁distinguished	-10.3701
HIS	-10.3702
hood	-10.3703
Some	-10.3713
▁dreams	-10.372
▁mountains	-10.372
▁quit	-10.3724
▁philosopher	-10.3728
▁distribution	-10.3729
▁material	-10.3729
▁principal	-10.3729
▁throne	-10.3729
▁stage	-10.3729
▁reflection	-10.373
▁wept	-10.3731
▁citizens	-10.3736
ueen	-10.3737
▁sailors	-10.3741
spir	-10.3742
▁wing	-10.3754
▁maintain	-10.3758
▁base	-10.3765
▁protected	-10.3766
Look	-10.3772
cal	-10.3783
▁tent	-10.3784
ists	-10.3785
▁Pr	-10.3785
▁knee	-10.3795
▁astonished	-10.3796
▁Street	-10.3797
▁YOU	-10.3797
▁lodge	-10.3797
▁actually	-10.3809
▁Wu	-10.381
▁signal	-10.3829
▁reign	-10.3834
▁details	-10.3835
▁existed	-10.3846
▁holy	-10.3856
▁civil	-10.3861
▁apart	-10.3863
▁altogether	-10.3865
▁boast	-10.3865
▁consult	-10.3865
amp	-10.3867
▁admitted	-10.3868
▁chain	-10.3869
late	-10.3873
▁encounter	-10.3894
▁belonged	-10.3896
▁informed	-10.3897
▁torn	-10.3897
▁wants	-10.3898
▁Mother	-10.3914
▁drunk	-10.3929
▁labor	-10.3932
▁activity	-10.3933
▁exercise	-10.3933
▁solid	-10.3934
ough	-10.3934
▁trial	-10.3935
▁friendship	-10.3939
hole	-10.3942
amb	-10.3959
▁mon	-10.3962
▁trembled	-10.3962
▁animals	-10.3963
▁weep	-10.3963
▁retire	-10.3968
▁plans	-10.3975
pan	-10.3977
▁unexpected	-10.3979
▁Pro	-10.3982
▁gates	-10.3999
▁deserve	-10.4002
▁East	-10.4003
▁ca	-10.4003
▁quitted	-10.4004
▁safety	-10.4004
▁Ne	-10.4006
▁flatter	-10.4006
▁active	-10.4008
ute	-10.4018
▁pin	-10.4019
▁Bertuccio	-10.4023
▁Before	-10.4028
int	-10.4033
▁slightly	-10.4034
▁sisters	-10.4035
▁perceive	-10.4037
▁falls	-10.4038
▁arch	-10.4038
▁exact	-10.4038
▁Perhaps	-10.4044
Will	-10.4049
Did	-10.4058
▁repeat	-10.4063
ration	-10.4066
▁favor	-10.4068
▁driving	-10.4071
▁obvious	-10.4071
▁sank	-10.4071
▁sensation	-10.4071
▁sentiment	-10.4071
▁mercy	-10.4071
▁trap	-10.4072
ize	-10.4074
▁portion	-10.4083
▁protect	-10.4083
▁rid	-10.4102
▁recall	-10.4103
▁abandoned	-10.4107
hand	-10.4116
▁infinite	-10.4118
▁Per	-10.4118
▁crying	-10.4126
▁flames	-10.4133
▁proceeded	-10.4134
....”	-10.4135
▁choice	-10.4141
▁pavement	-10.4141
▁swear	-10.4141
▁thither	-10.4141
▁keen	-10.4141
▁Those	-10.4142
▁poetry	-10.4144
▁flat	-10.4145
▁sport	-10.4145
▁heavens	-10.4145
▁Romeo	-10.4146
▁anywhere	-10.4149
▁connected	-10.415
▁Pávlovna	-10.4151
▁silently	-10.4152
▁Bagratión	-10.4156
▁leaned	-10.4161
▁employ	-10.4165
bra	-10.417
▁desert	-10.4174
▁declared	-10.4174
▁8	-10.4179
▁fearful	-10.418
▁refused	-10.4186
▁pace	-10.419
▁desires	-10.4195
AT	-10.4201
▁paying	-10.4207
Hu	-10.4208
▁Julie	-10.4209
Renaud	-10.4212
▁handkerchief	-10.4212
▁smooth	-10.4212
▁hint	-10.4213
bar	-10.4221
▁convict	-10.4227
▁daughters	-10.4231
!"	-10.4236
▁weary	-10.4241
ability	-10.4266
▁concern	-10.4276
▁press	-10.4281
▁horizon	-10.4283
▁comprehend	-10.4283
▁possibility	-10.4283
▁receiving	-10.4283
▁slaughter	-10.4283
ai	-10.4286
▁arts	-10.4287
cap	-10.4287
▁conviction	-10.4289
▁season	-10.4297
▁humanity	-10.43
▁condemned	-10.4303
▁license	-10.4308
▁sole	-10.4309
▁Christopher	-10.4309
▁witness	-10.4312
▁treat	-10.4315
▁kings	-10.4317
▁da	-10.4319
▁distinct	-10.4321
▁oh	-10.4333
piece	-10.4336
bound	-10.4338
▁cruel	-10.4353
▁bodies	-10.4354
▁description	-10.4354
▁nevertheless	-10.4354
▁Italian	-10.4354
▁south	-10.4355
▁Like	-10.4355
▁assistance	-10.4355
▁trade	-10.4357
▁poem	-10.4358
▁awake	-10.436
▁agreeable	-10.4361
▁pit	-10.4368
▁doubtless	-10.437
ars	-10.4374
▁knock	-10.4387
▁rare	-10.4406
Nothing	-10.4409
▁size	-10.4413
▁rolling	-10.4417
▁addition	-10.442
▁Very	-10.442
▁absent	-10.4426
▁obscure	-10.4426
▁accent	-10.4426
▁assassin	-10.4426
▁flung	-10.4428
.’”	-10.4429
lit	-10.4441
De	-10.4452
▁plainly	-10.4455
▁companions	-10.4463
▁created	-10.4476
▁J	-10.4478
lay	-10.4481
▁Sir	-10.4484
▁owe	-10.4485
See	-10.4493
▁anguish	-10.4499
▁cavalry	-10.4499
▁chimney	-10.4499
▁diamond	-10.4499
▁magnificent	-10.4499
▁religion	-10.4499
▁extent	-10.4499
▁ashamed	-10.4499
▁foreign	-10.4499
▁block	-10.45
▁Mo	-10.4511
▁frequently	-10.4513
rov	-10.4514
▁principles	-10.452
▁vanished	-10.4522
▁reflected	-10.453
▁prey	-10.4536
▁waste	-10.4542
ative	-10.4549
▁stared	-10.4569
▁resist	-10.4571
▁milk	-10.4572
▁stout	-10.4572
▁precious	-10.4572
▁coachman	-10.4573
▁Men	-10.4598
▁hills	-10.461
▁preserve	-10.4611
▁treated	-10.4611
▁grant	-10.4612
▁17	-10.4612
▁manage	-10.4612
▁cases	-10.4622
▁final	-10.4623
▁ice	-10.4624
Un	-10.4631
shot	-10.4643
▁contract	-10.4645
▁glancing	-10.4645
▁violence	-10.4645
▁Sperm	-10.4645
▁source	-10.4645
▁vice	-10.4651
uring	-10.4653
▁armies	-10.4657
▁apparently	-10.4658
▁setting	-10.4664
▁beard	-10.4665
▁disorder	-10.4665
▁toil	-10.4672
▁blessed	-10.4674
▁hunger	-10.4678
▁(_	-10.4678
▁leap	-10.468
▁apple	-10.4685
▁weeping	-10.4688
ked	-10.4704
Take	-10.4706
▁cares	-10.471
▁process	-10.4712
▁hoped	-10.4716
▁ignorance	-10.4719
▁curtain	-10.472
▁firing	-10.472
▁remarkable	-10.4723
▁cheer	-10.4724
▁Har	-10.473
▁win	-10.473
hu	-10.4731
▁Frenchman	-10.4738
▁addressing	-10.4738
▁inn	-10.4745
most	-10.4757
▁hang	-10.4758
▁figures	-10.4759
▁separated	-10.476
▁ob	-10.476
self	-10.4766
▁bringing	-10.4768
eus	-10.477
▁eBooks	-10.4776
Madame	-10.4782
keeper	-10.4791
tus	-10.4794
▁lantern	-10.4794
▁nervous	-10.4794
▁striking	-10.4794
▁bolt	-10.4794
▁foam	-10.4795
Listen	-10.4795
ED	-10.4801
▁follows	-10.4808
▁pr	-10.4814
▁badly	-10.4819
▁wheels	-10.4823
▁ended	-10.4823
▁breathing	-10.4824
▁manners	-10.484
▁eager	-10.4841
US	-10.4843
▁uneasy	-10.4869
▁belief	-10.4869
▁whip	-10.4869
▁midnight	-10.4869
▁meantime	-10.4871
▁assist	-10.4872
▁comment	-10.4873
Ho	-10.4873
▁Fa	-10.4874
▁recollection	-10.488
▁brothers	-10.4889
ery	-10.4892
▁control	-10.4899
▁abandon	-10.4906
▁pleasures	-10.4909
▁seize	-10.4911
▁reasons	-10.4919
▁Rostóvs	-10.4923
▁banker	-10.4926
▁wearing	-10.4938
▁major	-10.4942
▁shoot	-10.4945
▁purple	-10.4945
▁feeble	-10.4946
▁trick	-10.4946
▁mood	-10.4947
▁governor	-10.495
▁First	-10.4953
▁tin	-10.4954
▁exhausted	-10.4959
▁younger	-10.496
▁breaking	-10.4961
looking	-10.4961
▁presently	-10.4962
ren	-10.4967
▁circumstance	-10.497
aid	-10.4973
▁Russians	-10.4974
▁sofa	-10.4979
▁previously	-10.4983
▁Tell	-10.4984
▁sink	-10.4985
25	-10.5011
▁branch	-10.5013
AL	-10.5017
▁drank	-10.5021
▁suspicion	-10.5021
▁motive	-10.5021
▁baroness	-10.5022
▁doom	-10.5024
▁engagement	-10.5025
▁Countess	-10.5025
▁tide	-10.5025
▁daylight	-10.5034
▁Europe	-10.5036
nn	-10.5037
▁sunk	-10.5042
▁limbs	-10.5048
CE	-10.5068
bye	-10.5072
▁careful	-10.5086
▁formidable	-10.5098
▁musket	-10.5098
▁qualities	-10.5098
▁squadron	-10.5098
▁steward	-10.5098
▁inhabitants	-10.5098
▁Nestor	-10.5098
▁harpooneer	-10.5098
▁Moreover	-10.5098
▁stuff	-10.5098
▁excitement	-10.5099
▁Italy	-10.5099
▁Roman	-10.5102
here	-10.5104
▁rocks	-10.5107
▁bend	-10.5108
▁lesson	-10.5113
▁eaten	-10.5114
Her	-10.5122
▁neighbor	-10.5135
▁Chi	-10.514
CH	-10.5142
▁managed	-10.5145
rag	-10.5149
right	-10.5152
▁stayed	-10.5159
▁10	-10.5164
▁formerly	-10.5166
▁interests	-10.5166
▁handle	-10.5174
▁tranquil	-10.5175
▁bourgeois	-10.5175
▁contrast	-10.5175
▁cottage	-10.5175
▁furniture	-10.5175
▁shepherd	-10.5175
▁upstairs	-10.5175
▁mystery	-10.5175
▁fur	-10.5177
▁rulers	-10.518
▁Once	-10.5184
▁happens	-10.5184
▁teach	-10.5185
▁sorts	-10.5205
▁affected	-10.521
▁deliver	-10.5215
▁guess	-10.5215
▁ascend	-10.5215
▁glow	-10.5216
Can	-10.5229
▁constant	-10.5231
▁During	-10.5233
▁historians	-10.524
▁failed	-10.5241
Re	-10.5243
▁usually	-10.5247
Cosette	-10.5249
,000	-10.525
▁nodded	-10.5254
▁stiff	-10.5254
▁mask	-10.5256
aire	-10.5272
▁yards	-10.5278
▁disturb	-10.5294
▁Com	-10.5294
▁text	-10.5301
▁visitor	-10.5304
▁merit	-10.5304
▁conditions	-10.5309
EL	-10.5321
Saint	-10.5322
▁Vi	-10.5322
tag	-10.5322
ov	-10.5323
Father	-10.5329
▁Each	-10.5329
▁forgot	-10.5332
▁dragged	-10.5332
▁intimate	-10.5332
▁collection	-10.5332
▁shone	-10.5332
▁giant	-10.5332
▁arrow	-10.5333
▁dancing	-10.5333
6.	-10.5333
▁card	-10.5333
▁agony	-10.5334
▁devoted	-10.5342
▁Jo	-10.5344
▁announced	-10.5347
▁test	-10.5349
▁super	-10.5349
▁included	-10.5355
▁related	-10.536
▁[1	-10.5362
▁nation	-10.5364
▁detail	-10.5371
TH	-10.5377
▁pitch	-10.5377
mate	-10.5378
▁fears	-10.5389
▁sway	-10.5389
▁comrades	-10.5399
▁closely	-10.54
ides	-10.54
▁whirl	-10.5412
▁Mikháylovna	-10.5412
▁nonsense	-10.5412
▁practice	-10.5412
▁preceding	-10.5412
▁disgrace	-10.5412
▁utmost	-10.5412
▁crawl	-10.5412
▁anchor	-10.5412
▁fought	-10.5412
▁lift	-10.5413
▁odd	-10.5414
▁profession	-10.5415
▁alarmed	-10.5416
shop	-10.5418
▁weakness	-10.5422
alash	-10.5429
Tis	-10.5437
▁reaching	-10.5446
▁guest	-10.5449
▁consist	-10.5452
▁Lu	-10.5456
▁forever	-10.5457
▁breathe	-10.5461
▁lack	-10.5469
▁attacked	-10.5482
2.	-10.5491
Méran	-10.5492
▁delicate	-10.5492
▁fortunate	-10.5492
▁glorious	-10.5492
▁numerous	-10.5492
▁observation	-10.5492
▁radiant	-10.5492
▁defeat	-10.5492
▁endeavor	-10.5492
▁porch	-10.5492
▁string	-10.5492
▁reference	-10.5492
▁fever	-10.5495
▁sooner	-10.5497
▁consciousness	-10.5499
ez	-10.55
▁inclined	-10.5501
▁hit	-10.5503
▁movements	-10.5513
▁50	-10.5514
▁mar	-10.5519
lar	-10.5522
tel	-10.5533
▁Sometimes	-10.5533
▁...	-10.5535
han	-10.5538
nor	-10.5547
▁exists	-10.5556
▁signs	-10.5556
long	-10.556
▁Man	-10.5564
ification	-10.5572
Avrigny	-10.5572
▁appointed	-10.5572
▁corridor	-10.5572
▁dignity	-10.5572
▁Witch	-10.5572
▁shiver	-10.5572
▁title	-10.5572
▁taught	-10.5572
▁June	-10.5574
▁bullet	-10.5574
▁bride	-10.5575
ray	-10.5576
▁hungry	-10.5578
▁hid	-10.5581
▁commands	-10.5586
▁BOOK	-10.5587
▁lament	-10.5587
▁color	-10.5592
▁deceived	-10.5595
ept	-10.5597
▁woods	-10.5611
▁solicit	-10.5616
bed	-10.5619
▁tremble	-10.5619
▁remarks	-10.562
▁describe	-10.5622
ien	-10.5627
▁i	-10.5629
▁presents	-10.5634
atch	-10.5641
▁goodness	-10.5644
▁recollect	-10.5645
▁galleys	-10.5646
▁heavenly	-10.5647
range	-10.5651
▁Mars	-10.5652
liness	-10.5652
▁Bourienne	-10.5654
▁silk	-10.5654
▁shaking	-10.5654
▁PRO	-10.5654
▁debt	-10.5654
Count	-10.5656
▁hostile	-10.5656
▁scale	-10.5657
▁expecting	-10.566
▁absorbed	-10.5661
▁precisely	-10.5666
▁Eugénie	-10.5672
Till	-10.5681
▁ride	-10.5694
▁recalled	-10.57
horn	-10.5701
▁machine	-10.571
▁burned	-10.5713
▁immediate	-10.5713
Dear	-10.5719
▁locked	-10.5725
▁leader	-10.5727
▁stir	-10.5734
JULIET	-10.5736
▁Glaucon	-10.5736
▁basket	-10.5736
▁breeze	-10.5736
▁destiny	-10.5736
▁throng	-10.5736
▁survey	-10.5736
▁shelter	-10.5736
▁buy	-10.5736
▁queer	-10.5736
▁Seward	-10.5737
▁deed	-10.5739
▁hatred	-10.574
▁torch	-10.5741
▁creation	-10.5743
▁cell	-10.5745
▁moreover	-10.5747
▁Cat	-10.5748
▁halted	-10.577
illa	-10.5772
.3	-10.5773
▁east	-10.5773
▁Thy	-10.5777
▁objects	-10.5782
did	-10.5789
▁larger	-10.5795
▁shouts	-10.5797
▁worked	-10.5798
▁poets	-10.5801
▁cow	-10.5801
▁wounds	-10.581
▁seas	-10.5812
▁fatigue	-10.5818
▁relative	-10.5818
▁clerk	-10.5818
▁invisible	-10.5818
▁oath	-10.5818
▁intellectual	-10.5818
▁mild	-10.5818
▁beloved	-10.5818
▁throwing	-10.582
▁plate	-10.582
▁purse	-10.5825
ek	-10.5828
▁sold	-10.5829
▁pronounced	-10.5831
▁cab	-10.5837
ois	-10.5847
ties	-10.5853
▁limit	-10.5854
▁soil	-10.5858
▁posted	-10.5867
▁distribute	-10.5867
▁helped	-10.5868
▁Nevertheless	-10.587
▁linen	-10.5874
bla	-10.5875
▁seal	-10.5879
une	-10.5879
▁Se	-10.588
▁Tin	-10.5883
eh	-10.5887
▁showing	-10.5899
▁mission	-10.5901
▁August	-10.5902
▁armchair	-10.5902
▁gratitude	-10.5902
▁White	-10.5902
▁vault	-10.5902
▁dozen	-10.5902
▁harmony	-10.5902
▁kingdom	-10.5903
▁etc	-10.5903
▁foolish	-10.5904
▁hut	-10.5905
▁pur	-10.5905
arm	-10.5906
▁VII	-10.5908
▁peer	-10.5909
▁clock	-10.5912
▁belong	-10.5912
▁plunged	-10.5914
▁wishing	-10.5914
▁sang	-10.5915
▁armed	-10.5916
▁attain	-10.5917
▁hell	-10.5918
Uncle	-10.5923
▁Alpátych	-10.5924
well	-10.5929
ically	-10.5932
▁City	-10.5932
▁inform	-10.5932
▁Bonaparte	-10.5933
▁crossing	-10.5933
▁creat	-10.5934
▁utterly	-10.5938
▁complain	-10.5946
▁hunt	-10.5948
▁Je	-10.5949
▁amongst	-10.5959
▁loudly	-10.5959
▁begins	-10.5965
hal	-10.5965
▁drops	-10.5974
ony	-10.5976
▁neighbour	-10.5985
▁glimpse	-10.5986
▁magistrate	-10.5986
▁vehicle	-10.5986
▁reckon	-10.5986
▁inspector	-10.5988
▁Christian	-10.5989
▁wet	-10.5989
aries	-10.5992
▁cock	-10.5992
▁concluded	-10.5997
▁fired	-10.5998
ney	-10.6004
▁pole	-10.6023
▁scream	-10.6032
▁Certainly	-10.604
▁softly	-10.6045
sail	-10.6049
23	-10.6054
▁fo	-10.6059
▁stock	-10.6069
▁advancing	-10.607
▁agitated	-10.607
▁battalion	-10.607
▁brief	-10.607
▁squire	-10.607
▁duties	-10.6071
▁price	-10.6071
▁gown	-10.6072
▁infantry	-10.6072
▁oars	-10.6075
▁idle	-10.6076
▁Baron	-10.6077
▁Trojans	-10.6077
▁pierced	-10.6081
▁bath	-10.6088
▁fastened	-10.6089
▁Cha	-10.6091
▁suggested	-10.6098
▁performed	-10.6107
five	-10.6109
vis	-10.6113
AS	-10.6114
▁crack	-10.6115
▁blows	-10.6118
lon	-10.6118
▁perish	-10.6121
line	-10.6127
▁rushing	-10.6134
gor	-10.6141
▁goat	-10.6148
table	-10.6151
▁September	-10.6156
▁admiration	-10.6156
▁criminal	-10.6156
▁incident	-10.6156
▁javelin	-10.6156
▁judgment	-10.6156
▁unpleasant	-10.6156
▁funeral	-10.6156
▁bought	-10.6156
▁bag	-10.6156
▁]	-10.6159
▁insist	-10.616
True	-10.6166
▁urged	-10.6173
▁considering	-10.6178
▁Look	-10.6191
▁hastened	-10.6191
press	-10.6192
▁affect	-10.6195
▁mode	-10.62
▁afford	-10.6203
!...	-10.6206
▁bestow	-10.621
▁element	-10.6211
glo	-10.6217
▁earnest	-10.6222
▁BE	-10.6225
put	-10.6227
▁Hans	-10.6236
▁cunning	-10.6242
▁current	-10.6242
▁merchant	-10.6242
▁system	-10.6242
▁terrified	-10.6242
▁torture	-10.6242
place	-10.6244
Nay	-10.6244
▁guardians	-10.625
▁unre	-10.6251
▁cave	-10.6253
▁bedroom	-10.6253
▁nobody	-10.6253
mine	-10.6254
when	-10.6255
▁Rostopchín	-10.6256
▁mournful	-10.6257
Pe	-10.6258
▁introduced	-10.6264
Such	-10.6266
▁Guards	-10.6277
▁distributed	-10.6278
▁sous	-10.628
▁murmur	-10.629
▁feels	-10.6293
ore	-10.6306
air	-10.6307
uous	-10.6308
▁chiefs	-10.6318
▁Majesty	-10.6329
▁epoch	-10.6329
▁harpoon	-10.6329
▁heavily	-10.6329
▁popular	-10.6329
▁quality	-10.6329
▁disease	-10.6329
▁valet	-10.6329
▁pig	-10.634
▁hail	-10.634
Which	-10.6342
guard	-10.6344
▁term	-10.6347
▁Waterloo	-10.6347
▁galloped	-10.6354
—‘	-10.636
▁fi	-10.6366
▁recover	-10.6378
▁crush	-10.6378
▁visitors	-10.6383
▁mat	-10.6386
▁format	-10.6399
▁thirst	-10.6405
ram	-10.6407
iff	-10.6408
▁winds	-10.6412
▁fancied	-10.6417
▁practical	-10.6417
▁preparation	-10.6417
▁awoke	-10.6417
▁damage	-10.6417
▁chapter	-10.6419
▁fun	-10.6424
▁enable	-10.6426
▁Nantucket	-10.6431
ddle	-10.6433
▁Marseilles	-10.6435
▁vol	-10.6436
▁Haydée	-10.6444
▁distinctly	-10.6445
▁sufficiently	-10.6453
24	-10.6453
▁vari	-10.6454
▁Hence	-10.647
▁meal	-10.6481
▁miss	-10.6487
▁hussars	-10.6487
▁objection	-10.6489
▁quarters	-10.65
▁Long	-10.6503
▁strict	-10.6505
▁shriek	-10.6505
▁whaling	-10.6505
▁rosy	-10.6505
▁track	-10.6506
▁apply	-10.6506
▁humble	-10.6506
rum	-10.6507
▁dining	-10.6508
ee	-10.651
▁slightest	-10.6511
▁Island	-10.6511
▁cellar	-10.6512
▁thoroughly	-10.6512
▁accomplished	-10.6522
▁tied	-10.6526
ré	-10.654
▁Suddenly	-10.6557
▁causes	-10.656
▁embrace	-10.656
Le	-10.6581
▁permit	-10.6592
▁inferior	-10.6594
▁precaution	-10.6594
▁probable	-10.6594
▁loving	-10.6595
▁thread	-10.6595
▁quo	-10.6596
▁candles	-10.6597
▁XVIII	-10.6603
▁Again	-10.6603
▁bandit	-10.6604
▁Mi	-10.6605
▁perform	-10.6605
ome	-10.6607
▁bears	-10.6614
▁divided	-10.6623
▁prayers	-10.6628
▁backward	-10.6633
thus	-10.665
▁subjects	-10.6653
▁poured	-10.6654
▁interested	-10.6657
▁Everything	-10.6665
▁North	-10.6665
▁deadly	-10.6667
Pray	-10.6667
len	-10.6668
▁drinking	-10.667
▁artillery	-10.6682
▁defect	-10.6683
▁staring	-10.6684
▁relief	-10.6685
▁sweep	-10.6685
▁sympathy	-10.6685
▁whistle	-10.6685
▁harsh	-10.6685
▁Mont	-10.6685
▁spout	-10.6687
▁Champ	-10.6688
▁household	-10.6688
▁anybody	-10.6691
▁peril	-10.6692
▁ashes	-10.6704
▁west	-10.6705
▁rested	-10.6706
▁needs	-10.6708
▁flee	-10.672
▁troubled	-10.6721
then	-10.6732
▁reflect	-10.6733
▁brains	-10.6738
▁generals	-10.6741
▁assume	-10.6741
ée	-10.675
▁cheek	-10.6755
▁sighed	-10.6759
shin	-10.6764
▁Madam	-10.6765
▁murderer	-10.6769
▁sadly	-10.6773
▁helm	-10.6775
▁Apollo	-10.6776
▁refrain	-10.6776
▁resound	-10.6776
▁stories	-10.6776
▁whilst	-10.6776
▁submit	-10.6776
▁manifest	-10.6776
▁slipped	-10.6776
▁flock	-10.6778
▁imagined	-10.6787
▁plant	-10.6792
▁Section	-10.6792
▁invited	-10.6794
▁reasonable	-10.6795
▁VIII	-10.6796
Shall	-10.6799
▁friendly	-10.6807
▁brown	-10.6807
▁jump	-10.6829
▁intervals	-10.6835
eng	-10.6838
▁corn	-10.684
▁elbow	-10.6848
▁gift	-10.6848
▁beating	-10.6849
▁fellows	-10.6851
▁victor	-10.6854
pen	-10.6866
▁agitation	-10.6867
▁angrily	-10.6867
▁awkward	-10.6867
▁cloister	-10.6867
▁craft	-10.6867
▁majesty	-10.6867
▁unusual	-10.6867
▁region	-10.6867
▁encourage	-10.6868
▁begged	-10.6868
▁daring	-10.6869
▁borne	-10.6889
▁bands	-10.689
▁Colonel	-10.6891
▁suite	-10.6891
”—	-10.6892
Never	-10.6893
▁indicated	-10.6894
aunt	-10.6912
▁tap	-10.6915
▁settle	-10.6926
▁halt	-10.6926
▁offering	-10.6929
▁wouldn	-10.6943
uan	-10.6949
▁True	-10.695
▁Ja	-10.6954
▁Penelope	-10.696
▁instrument	-10.696
▁steam	-10.696
▁oppress	-10.696
▁eleven	-10.696
▁costume	-10.696
▁root	-10.696
▁FOR	-10.6965
leg	-10.6965
▁sixty	-10.6967
▁list	-10.6971
▁display	-10.6975
Elizabeth	-10.6985
▁loaded	-10.6995
ture	-10.7001
▁pains	-10.7015
orous	-10.7017
▁prompt	-10.702
▁bade	-10.7029
pose	-10.7034
dated	-10.7041
▁declare	-10.7044
▁Ithaca	-10.7053
▁gendarme	-10.7053
▁library	-10.7053
▁mirror	-10.7053
▁record	-10.7053
khov	-10.7054
▁salt	-10.7054
▁naked	-10.7054
▁marble	-10.7054
▁Sunday	-10.7056
▁punishment	-10.7056
▁XXI	-10.7058
▁jest	-10.7061
▁Ber	-10.7073
▁glittering	-10.7079
where	-10.7091
▁disturbed	-10.7099
Al	-10.7101
▁knocked	-10.7104
ET	-10.7108
▁partly	-10.7113
▁file	-10.7113
▁feed	-10.7114
rie	-10.7114
ility	-10.712
▁Shall	-10.7129
▁dig	-10.7135
▁eldest	-10.7148
▁swept	-10.7148
▁valley	-10.7148
▁involuntarily	-10.7148
▁sperm	-10.7148
▁induce	-10.7148
▁courtyard	-10.7149
▁folded	-10.7149
ère	-10.7151
▁Another	-10.7155
▁sustain	-10.7156
▁attracted	-10.7173
Greek	-10.7176
▁proposed	-10.7177
▁displaying	-10.7188
camp	-10.7188
▁gas	-10.7191
▁based	-10.7196
▁Sh	-10.7198
ART	-10.7202
▁admire	-10.7208
▁couldn	-10.7217
▁statement	-10.7221
▁bat	-10.7227
▁prop	-10.7232
▁Through	-10.7233
collect	-10.7238
▁Leblanc	-10.7243
▁accompany	-10.7243
▁valiant	-10.7243
▁joke	-10.7244
▁honey	-10.7244
▁vow	-10.7246
▁crowded	-10.7246
▁affectionate	-10.7247
▁partner	-10.725
▁Roo	-10.7255
▁peaceful	-10.7257
book	-10.7265
▁shine	-10.7268
▁outer	-10.7269
come	-10.727
21	-10.7274
Aye	-10.7277
▁legal	-10.7284
over	-10.7286
▁recovered	-10.7288
▁firmly	-10.7293
▁rules	-10.7299
▁quiver	-10.7299
▁artist	-10.7306
post	-10.7316
▁IX	-10.7318
ium	-10.7319
Say	-10.7326
▁mayor	-10.7329
▁bows	-10.7336
▁Abbé	-10.7339
▁Márya	-10.7339
▁Eeyore	-10.7339
▁boulevard	-10.7339
▁burden	-10.7339
▁conflict	-10.7339
▁animated	-10.7339
▁appeal	-10.7339
▁reverie	-10.7339
▁South	-10.7339
▁type	-10.7339
▁abode	-10.7339
▁remote	-10.734
▁requirements	-10.734
▁philosophers	-10.7341
▁north	-10.7342
mas	-10.7345
▁shows	-10.7347
▁overcome	-10.7348
bel	-10.7353
▁compared	-10.7356
▁baron	-10.7357
▁maids	-10.736
▁helpless	-10.7364
▁painted	-10.7367
Rostóv	-10.7371
Two	-10.7373
af	-10.7373
▁furnished	-10.7375
▁preserved	-10.7384
▁inner	-10.7396
▁ate	-10.7396
▁notion	-10.7408
Me	-10.7416
▁graceful	-10.7422
▁earn	-10.7424
▁guardian	-10.7434
▁Borodinó	-10.7436
▁Flask	-10.7436
▁energy	-10.7436
▁evidence	-10.7436
▁medicine	-10.7436
▁monsieur	-10.7436
▁steep	-10.7436
▁sublime	-10.7436
▁meadow	-10.7436
▁tight	-10.7436
▁coarse	-10.7436
▁persist	-10.7436
▁barrier	-10.7436
▁characteristic	-10.7437
barrel	-10.7437
▁Dick	-10.7442
▁oak	-10.7444
▁armour	-10.7445
top	-10.7446
▁starting	-10.7447
▁bark	-10.7449
▁parted	-10.7456
▁Many	-10.7457
▁ruined	-10.746
▁scattered	-10.7463
▁editions	-10.7465
▁deny	-10.7469
▁restored	-10.7469
Thou	-10.747
▁nearest	-10.747
▁War	-10.7471
▁arrested	-10.7474
▁riding	-10.7492
▁wi	-10.7493
▁pretend	-10.7495
▁plum	-10.7498
▁Sch	-10.7506
▁log	-10.7506
▁obtained	-10.7514
wagon	-10.7534
▁withdraw	-10.7534
▁tumult	-10.7534
▁Dmítrievna	-10.7534
▁Neptune	-10.7534
▁Priam	-10.7534
▁indifference	-10.7534
▁multitude	-10.7534
▁folly	-10.7534
▁beggar	-10.7536
▁Faria	-10.7536
screw	-10.7538
▁undertake	-10.7538
▁cord	-10.7538
▁repose	-10.7539
▁discussion	-10.7542
▁ahead	-10.7543
▁hasten	-10.7564
▁delightful	-10.7568
▁driver	-10.757
Pooh	-10.7571
cut	-10.7574
stand	-10.7576
mar	-10.7583
▁dish	-10.7586
just	-10.7587
▁virtues	-10.7592
▁coach	-10.7593
▁arrest	-10.7594
▁resemble	-10.7599
▁relate	-10.7605
your	-10.7609
▁honours	-10.7623
▁whereas	-10.7626
▁infant	-10.7631
▁October	-10.7633
▁definite	-10.7633
▁prospect	-10.7633
▁solitary	-10.7633
▁supreme	-10.7633
▁trousers	-10.7633
▁sombre	-10.7633
▁summit	-10.7633
▁applied	-10.7633
▁article	-10.7633
▁Revolution	-10.7633
▁scrap	-10.7634
net	-10.7636
war	-10.7637
▁historical	-10.7643
▁acquired	-10.7646
▁throughout	-10.7648
▁shades	-10.7651
▁mental	-10.7653
Really	-10.766
ify	-10.7668
▁thine	-10.7671
Still	-10.7671
▁bless	-10.7679
ach	-10.7679
▁vent	-10.768
▁bill	-10.7683
▁aged	-10.7689
▁convey	-10.7694
▁increase	-10.7699
▁deeds	-10.771
▁sailed	-10.772
▁About	-10.7724
▁completed	-10.7728
▁resign	-10.7731
▁indulge	-10.7732
▁visited	-10.7733
▁amazement	-10.7733
▁fragment	-10.7733
▁indifferent	-10.7733
▁smoking	-10.7733
▁bull	-10.7735
▁highly	-10.7737
▁attendant	-10.7738
▁coursers	-10.7745
▁executed	-10.7746
▁theory	-10.7748
▁ruler	-10.7752
get	-10.7753
▁gifts	-10.7754
▁tip	-10.7756
▁summoned	-10.7761
▁alas	-10.7765
Perhaps	-10.7773
▁Hsi	-10.7775
wed	-10.7784
_)	-10.7785
▁tar	-10.7786
▁spy	-10.7791
four	-10.7792
▁suspect	-10.7795
▁sorrows	-10.7803
▁seriously	-10.7809
▁endure	-10.7815
▁descending	-10.7821
izing	-10.783
▁Gardiner	-10.7834
▁Smolénsk	-10.7834
▁assurance	-10.7834
▁fifth	-10.7834
▁providing	-10.7834
▁substance	-10.7834
▁compliment	-10.7834
▁impulse	-10.7834
▁vivid	-10.7834
▁commission	-10.7834
▁collar	-10.7834
▁established	-10.7835
▁bond	-10.7835
▁collected	-10.7835
▁patron	-10.7835
▁holder	-10.7837
Mar	-10.7839
▁readily	-10.784
▁cla	-10.7842
▁Su	-10.7843
kov	-10.7858
▁Ex	-10.7858
▁pull	-10.7859
▁emerged	-10.786
chi	-10.7865
——	-10.7868
▁awaiting	-10.7873
ka	-10.7885
▁bending	-10.7887
▁strangers	-10.7889
▁restore	-10.7906
▁execution	-10.7907
▁Thou	-10.7909
▁sending	-10.7912
▁attended	-10.7921
▁reports	-10.7921
▁external	-10.7936
▁increasing	-10.7936
▁ridiculous	-10.7936
▁twilight	-10.7936
▁altar	-10.7936
▁hoarse	-10.7936
▁greet	-10.7936
▁devour	-10.7936
▁operation	-10.7937
▁hitherto	-10.7938
▁losing	-10.7938
▁couch	-10.7939
▁chill	-10.7941
▁abruptly	-10.7946
▁occasionally	-10.7949
▁prevented	-10.7951
▁distinction	-10.7952
ient	-10.7953
▁unlike	-10.7953
▁Take	-10.7955
▁masses	-10.796
▁Helen	-10.7961
▁Na	-10.7966
▁constantly	-10.7966
▁lash	-10.7969
▁mixed	-10.7969
▁hurriedly	-10.7976
▁extremely	-10.7977
ya	-10.7981
Only	-10.7982
▁bestowed	-10.7982
▁dearest	-10.7985
▁consisted	-10.7986
▁pressing	-10.7994
▁disappear	-10.7999
▁load	-10.8
▁dwell	-10.8003
Whose	-10.8005
▁acknowledge	-10.8005
▁shuddered	-10.8012
▁members	-10.8016
▁chiefly	-10.8017
▁strangely	-10.8023
▁tempt	-10.8024
iest	-10.8025
▁reported	-10.8031
stone	-10.8035
▁celestial	-10.8039
▁district	-10.8039
▁plenty	-10.8039
▁politics	-10.8039
▁destined	-10.8039
▁footsteps	-10.8039
▁sentinel	-10.8039
▁abroad	-10.8039
▁amiable	-10.804
▁Ilion	-10.804
▁nun	-10.8041
Full	-10.8042
▁Austrian	-10.8043
▁leagues	-10.8047
▁Englishman	-10.8047
▁tenderness	-10.8049
▁cutting	-10.8051
▁disposed	-10.8051
aux	-10.8052
▁grin	-10.8064
pond	-10.8082
▁origin	-10.8083
▁violently	-10.8086
26	-10.809
atory	-10.8093
▁sails	-10.8096
▁lovers	-10.8098
▁thoughtful	-10.8099
mes	-10.8104
▁pine	-10.8104
▁furnish	-10.8105
▁blush	-10.8105
▁remove	-10.8109
▁inquire	-10.8109
Enter	-10.8127
▁shared	-10.8137
za	-10.8141
Odyssey	-10.8143
▁absurd	-10.8143
▁enthusiasm	-10.8143
▁occupation	-10.8143
▁refuge	-10.8143
▁solitude	-10.8143
▁unnatural	-10.8143
▁inquiries	-10.8143
▁hammer	-10.8143
▁scheme	-10.8144
▁slope	-10.8144
▁steady	-10.8144
▁brass	-10.8144
Upon	-10.8144
▁series	-10.8144
▁status	-10.8145
▁fox	-10.8145
▁elsewhere	-10.8145
▁notary	-10.8147
▁jaw	-10.815
▁sack	-10.8152
▁traversed	-10.8156
mus	-10.8159
▁pant	-10.8167
▁bowl	-10.8172
▁copying	-10.8175
▁resembled	-10.818
▁crushed	-10.819
▁mud	-10.8198
▁notes	-10.8201
boat	-10.8202
X	-10.8205
see	-10.8209
▁15	-10.8211
▁purchase	-10.8214
May	-10.8217
▁await	-10.8219
▁carts	-10.8231
▁Han	-10.8231
▁Pan	-10.8248
▁conquest	-10.8249
▁pillow	-10.8249
▁threshold	-10.8249
▁trunk	-10.8249
▁defence	-10.8249
▁essential	-10.8249
▁replies	-10.8249
▁reputation	-10.8249
Please	-10.8249
▁knot	-10.8249
▁Peter	-10.8249
▁wives	-10.8249
▁dispute	-10.8249
▁meanwhile	-10.825
▁slid	-10.8252
▁passionate	-10.8252
▁ages	-10.8255
▁damp	-10.8256
▁decree	-10.8257
▁CON	-10.826
▁axe	-10.8264
▁pal	-10.8265
▁Michael	-10.8267
▁sounded	-10.8276
▁realized	-10.8277
▁fist	-10.8281
Tell	-10.83
Villefort	-10.83
▁climb	-10.8316
▁alike	-10.8321
▁Bl	-10.8321
▁Three	-10.8323
Lo	-10.8327
▁timid	-10.8332
▁hospital	-10.8352
▁strip	-10.8355
▁club	-10.8355
▁audible	-10.8355
▁invitation	-10.8355
▁messenger	-10.8355
▁tempest	-10.8355
▁hesitation	-10.8355
▁blaze	-10.8355
▁harness	-10.8355
▁nerve	-10.8355
▁contact	-10.8356
▁rags	-10.836
2]	-10.8362
LI	-10.8365
▁madness	-10.8373
▁July	-10.8374
▁discovery	-10.8382
▁captured	-10.8383
▁confined	-10.8384
▁doesn	-10.8395
▁displayed	-10.84
ici	-10.8403
▁border	-10.8403
▁insisted	-10.8404
▁ascended	-10.8408
Danglars	-10.8409
ground	-10.841
00,000	-10.841
▁encountered	-10.8416
▁represented	-10.8417
1]	-10.8421
▁divide	-10.8428
▁***	-10.8429
▁particulars	-10.843
ean	-10.8438
▁containing	-10.8439
▁heaps	-10.8441
Tu	-10.8444
coat	-10.8447
▁chose	-10.8452
▁proceeding	-10.8454
▁decision	-10.8463
▁female	-10.8463
▁folk	-10.8463
▁leather	-10.8463
▁portrait	-10.8463
▁civilization	-10.8463
▁RE	-10.8463
▁transport	-10.8463
▁accordance	-10.8464
▁dirty	-10.8466
▁ladder	-10.8466
▁dislike	-10.8469
▁breathless	-10.8473
▁Next	-10.8475
▁gore	-10.8475
link	-10.8478
▁Menelaus	-10.8481
nal	-10.8485
17	-10.8495
ENT	-10.8501
▁strongly	-10.8501
▁Mor	-10.8509
▁ni	-10.8513
Ulysses	-10.8519
▁senses	-10.8521
▁noon	-10.8528
TED	-10.8529
▁wanting	-10.853
▁persuade	-10.8537
▁leads	-10.8539
▁retain	-10.854
▁dash	-10.8541
▁commanded	-10.8545
▁misfortunes	-10.8557
▁prayed	-10.856
▁govern	-10.856
▁rat	-10.8563
nic	-10.8564
▁Philip	-10.8571
▁dwarf	-10.8571
▁martial	-10.8571
▁physician	-10.8571
▁slang	-10.8571
▁translation	-10.8571
▁despise	-10.8571
▁message	-10.8571
▁steer	-10.8572
▁abyss	-10.8572
▁compliance	-10.8572
▁cask	-10.8572
▁Meanwhile	-10.8573
▁triumphant	-10.8575
▁celebrated	-10.8584
headed	-10.8588
▁paw	-10.8588
▁Agamemnon	-10.8592
▁marshal	-10.8592
Does	-10.8597
oke	-10.8599
▁boxes	-10.8603
▁habits	-10.8605
▁fairly	-10.8608
IES	-10.861
▁expectation	-10.8614
RY	-10.8643
8]	-10.8643
▁volunteers	-10.8645
▁rays	-10.8651
▁bi	-10.8655
▁counter	-10.8672
▁calmly	-10.8673
ME	-10.8675
▁successful	-10.868
JECT	-10.8681
NURSE	-10.8681
▁Wilson	-10.8681
▁admirable	-10.8681
▁assembled	-10.8681
▁benefit	-10.8681
▁carpenter	-10.8681
▁devotion	-10.8681
▁grape	-10.8681
▁landlord	-10.8681
▁monstrous	-10.8681
▁phantom	-10.8681
▁proposal	-10.8681
▁sensible	-10.8681
▁tolerably	-10.8681
▁rival	-10.8681
▁reject	-10.8684
óv	-10.8685
yard	-10.8685
▁March	-10.8694
▁XI	-10.8695
▁partial	-10.8697
▁Would	-10.8697
▁flushed	-10.8699
▁comrade	-10.8699
rb	-10.8702
▁ample	-10.8703
east	-10.8708
▁united	-10.8708
▁departed	-10.8716
▁letting	-10.8722
▁learning	-10.8732
▁limited	-10.8733
▁online	-10.8737
6]	-10.8749
▁remind	-10.8753
13	-10.8754
fire	-10.8754
uite	-10.8758
▁instructions	-10.8759
▁gardener	-10.8767
▁foundation	-10.8775
gin	-10.8789
▁hither	-10.8791
▁comparison	-10.8792
▁situated	-10.8792
▁salute	-10.8792
▁president	-10.8793
▁fiery	-10.8793
▁wax	-10.8794
▁procureur	-10.8795
▁talent	-10.8795
▁converse	-10.8797
▁Grand	-10.88
▁detain	-10.8804
▁fog	-10.8807
▁tailor	-10.8807
▁overwhelmed	-10.8813
rid	-10.8824
▁inspired	-10.8825
▁parties	-10.8828
▁Information	-10.8832
▁embraced	-10.8835
▁risen	-10.8836
▁Ly	-10.8839
▁Cor	-10.8839
cast	-10.8846
GutenbergTM	-10.8856
Monte	-10.8857
why	-10.8861
bou	-10.8861
Princess	-10.8866
▁propose	-10.8871
▁vessels	-10.8879
▁frequent	-10.8882
Yet	-10.8882
stead	-10.8897
▁lightly	-10.8902
▁GUTENBERG	-10.8905
▁William	-10.8905
▁ceiling	-10.8905
▁exclamation	-10.8905
▁families	-10.8905
▁feather	-10.8905
▁gigantic	-10.8905
▁quantity	-10.8905
▁seldom	-10.8905
▁variety	-10.8905
▁wolves	-10.8905
▁battery	-10.8905
▁steal	-10.8905
▁whither	-10.8905
▁wrapped	-10.8905
▁lively	-10.8905
▁compelled	-10.8905
Wait	-10.8905
▁organ	-10.8906
▁woke	-10.8906
▁grating	-10.8908
▁childhood	-10.8909
▁fence	-10.891
▁contented	-10.891
▁comfortable	-10.8913
▁Him	-10.8919
eth	-10.8921
▁lane	-10.8921
▁trip	-10.8928
▁hussar	-10.8928
▁En	-10.8941
▁resting	-10.8943
▁dashed	-10.8945
▁outline	-10.8949
▁riches	-10.8955
4]	-10.8957
▁Par	-10.8963
▁More	-10.8969
▁toils	-10.8975
gle	-10.8976
▁total	-10.8976
▁accord	-10.8977
▁balls	-10.8978
▁warn	-10.898
fil	-10.8981
Po	-10.8994
▁passions	-10.8997
▁darted	-10.8997
▁commit	-10.9016
Hold	-10.9018
▁contempt	-10.9018
▁cylinder	-10.9018
▁discern	-10.9018
▁intelligent	-10.9018
▁website	-10.9018
▁remorse	-10.9018
▁ANY	-10.9018
▁inquiring	-10.9018
▁computer	-10.9018
▁waistcoat	-10.9018
▁annoy	-10.9019
▁ugly	-10.902
▁rude	-10.9023
▁Sal	-10.9026
▁fees	-10.9029
▁provisions	-10.9029
▁joyous	-10.9029
▁11	-10.9029
▁16	-10.9029
itz	-10.9034
▁hesitated	-10.9035
▁Providence	-10.904
▁member	-10.9044
▁si	-10.9046
▁revealed	-10.9052
dom	-10.9052
ature	-10.9058
▁Black	-10.9059
cia	-10.9068
▁drawer	-10.9069
rous	-10.9075
▁pane	-10.9079
▁Little	-10.9087
▁passes	-10.9087
▁snatch	-10.9094
wo	-10.9098
upon	-10.9107
▁onto	-10.9108
▁danced	-10.9113
▁beach	-10.9121
▁obeyed	-10.9125
[1	-10.913
▁tramp	-10.9133
▁Peppino	-10.9133
▁disguise	-10.9133
▁dungeon	-10.9133
▁majestic	-10.9133
▁reception	-10.9133
▁significant	-10.9133
▁supply	-10.9133
▁Charlotte	-10.9133
▁carpet	-10.9133
▁stuck	-10.9133
▁swing	-10.9133
▁gracious	-10.9134
▁moonlight	-10.9135
▁saddle	-10.9135
Something	-10.9137
▁puff	-10.9141
▁personage	-10.9145
▁spur	-10.9152
▁Bear	-10.916
▁dine	-10.9163
▁13	-10.9165
▁replaced	-10.9166
▁dire	-10.9172
ssa	-10.9186
▁shout	-10.9201
ROMEO	-10.9204
▁engage	-10.9209
▁interrupt	-10.9211
▁14	-10.9213
▁interior	-10.9214
▁decide	-10.9215
lie	-10.9223
▁breathed	-10.9226
▁signed	-10.9234
▁joyful	-10.9239
▁species	-10.925
▁Mabeuf	-10.925
▁Vampa	-10.925
▁esteem	-10.925
▁examination	-10.925
▁examining	-10.925
▁mutual	-10.925
▁preparing	-10.925
▁significance	-10.925
▁skilful	-10.925
▁Baker	-10.925
▁aloft	-10.925
▁baby	-10.925
▁ornament	-10.925
▁intense	-10.925
Think	-10.925
▁robber	-10.925
▁mouse	-10.9252
▁Berg	-10.9256
Mon	-10.9256
▁pool	-10.9257
▁cities	-10.9258
▁hotel	-10.9259
▁stable	-10.9262
▁recently	-10.9267
▁tend	-10.9276
▁floating	-10.9276
▁Toto	-10.9278
▁maiden	-10.9279
▁ventured	-10.9282
▁somehow	-10.9283
▁million	-10.9284
▁illness	-10.9284
▁sounding	-10.929
▁dwelling	-10.9295
▁warning	-10.9299
▁performing	-10.9301
▁belonging	-10.9305
Pre	-10.9314
▁suggest	-10.9316
▁safely	-10.9317
▁discuss	-10.9318
▁Any	-10.9323
Before	-10.9323
▁Ta	-10.9327
▁fright	-10.933
▁pun	-10.9345
ache	-10.9349
Dr	-10.9349
▁deeper	-10.9354
▁ram	-10.9359
▁slip	-10.9365
▁bloody	-10.9366
▁swim	-10.9367
uincey	-10.9367
▁Godalming	-10.9367
▁Pontmercy	-10.9367
▁brazen	-10.9367
▁communication	-10.9367
▁occupy	-10.9367
▁receipt	-10.9367
▁sergeant	-10.9367
▁uncertain	-10.9367
▁sixteen	-10.9367
pinay	-10.9367
▁unwilling	-10.9367
Swift	-10.9367
▁plot	-10.9367
▁kick	-10.9367
▁crest	-10.9368
▁yonder	-10.9368
▁compassion	-10.937
yes	-10.9371
Our	-10.9376
▁attentively	-10.9381
dress	-10.9383
mail	-10.9385
oh	-10.9387
▁male	-10.9398
▁printed	-10.9399
▁cleared	-10.9402
▁non	-10.9403
22	-10.9405
ware	-10.9408
▁panting	-10.9412
▁spectacles	-10.942
▁missing	-10.9423
tho	-10.9426
▁Am	-10.9426
Their	-10.9426
acious	-10.9431
▁ashore	-10.9433
▁individuals	-10.9434
▁warriors	-10.9436
look	-10.9441
▁entertain	-10.9445
▁include	-10.9452
▁examine	-10.9452
▁youthful	-10.9455
Co	-10.9457
Give	-10.9458
▁actual	-10.9464
7]	-10.9468
▁Ni	-10.9481
▁doll	-10.9486
▁Gretel	-10.9486
▁Longbourn	-10.9486
▁bodily	-10.9486
▁constitution	-10.9486
▁jailer	-10.9486
▁obscurity	-10.9486
▁stomach	-10.9486
▁tradition	-10.9486
▁earlier	-10.9486
▁rejoin	-10.9486
▁volume	-10.9486
▁fortnight	-10.9487
▁magic	-10.9487
▁despite	-10.9488
▁student	-10.9488
▁hedge	-10.9489
▁owing	-10.9489
▁Jim	-10.949
shire	-10.9491
▁grim	-10.9495
▁somebody	-10.9496
▁—_	-10.9496
▁reverse	-10.9499
▁goal	-10.9502
▁farm	-10.9505
▁derived	-10.9508
▁frost	-10.9509
▁lowered	-10.9517
▁harmoni	-10.9525
hearted	-10.9529
▁rent	-10.9529
▁swiftly	-10.9529
Turn	-10.9532
▁results	-10.9534
▁perch	-10.9539
▁hiding	-10.9545
▁Parisian	-10.955
▁wherever	-10.9558
Though	-10.9566
Valentine	-10.9566
Albert	-10.9566
▁endeavour	-10.9568
▁vanish	-10.9569
Gutenberg	-10.9569
box	-10.9571
▁mix	-10.9572
▁indicate	-10.9572
▁advise	-10.9572
▁inspire	-10.9579
▁Bar	-10.9581
▁impatient	-10.9584
▁El	-10.9585
▁Er	-10.9587
▁Emmanuel	-10.9607
▁Jonah	-10.9607
▁Lizzy	-10.9607
▁newspaper	-10.9607
▁bulk	-10.9607
▁domestic	-10.9607
▁redoubt	-10.9607
▁changing	-10.9607
▁ivory	-10.9607
▁exceedingly	-10.9607
▁reverend	-10.9607
▁salon	-10.9607
▁favorite	-10.9608
▁NOT	-10.9609
▁yon	-10.9609
▁reflections	-10.961
▁Kung	-10.9611
▁lake	-10.9612
▁shrugg	-10.9613
▁market	-10.9613
▁headlong	-10.9616
▁Gu	-10.962
▁beaten	-10.962
▁Soon	-10.9625
truck	-10.9626
▁Cap	-10.9634
▁ray	-10.9644
▁Cossack	-10.9646
▁boot	-10.9648
▁elements	-10.965
▁additional	-10.9656
▁mile	-10.9662
nov	-10.9663
▁guessed	-10.9667
▁killing	-10.9668
0]	-10.967
▁sinking	-10.9671
▁Iliad	-10.9672
▁grasped	-10.9681
Nicholas	-10.969
▁select	-10.969
▁unity	-10.9694
▁deceive	-10.9694
▁determine	-10.9694
▁Old	-10.9695
▁dense	-10.9696
Con	-10.9713
maid	-10.9714
▁assert	-10.9719
▁interpret	-10.9721
eau	-10.9728
▁Chinese	-10.9729
▁contrive	-10.9729
▁emperor	-10.9729
▁gymnastic	-10.9729
▁haughty	-10.9729
▁indescribable	-10.9729
▁refresh	-10.9729
▁religious	-10.9729
▁sinister	-10.9729
▁valuable	-10.9729
▁decline	-10.9729
▁Owl	-10.9729
▁peep	-10.9729
▁veins	-10.9729
▁echo	-10.9729
▁ribbon	-10.9729
▁blew	-10.9729
ifying	-10.9729
▁statue	-10.9729
▁Indian	-10.9729
▁banish	-10.973
▁waking	-10.9731
▁links	-10.9732
▁likewise	-10.9739
▁duel	-10.974
▁limitation	-10.9741
▁illuminated	-10.9743
▁replace	-10.9743
▁sex	-10.9744
▁upright	-10.9751
▁Austerlitz	-10.9752
▁deprived	-10.9754
▁wealthy	-10.9755
tell	-10.9756
take	-10.9759
▁marrying	-10.9759
5]	-10.9759
▁lately	-10.9759
IVE	-10.9761
▁depth	-10.9772
▁interval	-10.9773
▁wondering	-10.9775
▁Christ	-10.9782
TO	-10.9802
▁depart	-10.9803
▁logic	-10.9804
▁enchant	-10.9813
while	-10.9815
think	-10.9815
▁comb	-10.9816
▁exchange	-10.9818
▁Since	-10.9829
maker	-10.9839
ology	-10.9852
▁exceed	-10.9852
▁Atrides	-10.9852
▁Combeferre	-10.9852
▁Spanish	-10.9852
▁applicable	-10.9852
▁conjecture	-10.9852
▁horrid	-10.9852
▁piercing	-10.9852
▁poverty	-10.9852
▁repair	-10.9852
▁serfs	-10.9852
▁simplicity	-10.9852
▁slumber	-10.9852
▁uneasiness	-10.9852
▁velvet	-10.9852
▁shift	-10.9852
▁shark	-10.9852
ponine	-10.9852
▁dried	-10.9852
▁scorn	-10.9852
nceforth	-10.9852
▁breed	-10.9853
▁Lucas	-10.9853
▁villain	-10.9854
▁creak	-10.9855
▁godlike	-10.9856
▁travelling	-10.9856
any	-10.9863
▁intently	-10.987
▁People	-10.9888
OW	-10.9897
▁awaited	-10.9898
▁ROMEO	-10.9901
▁intend	-10.9902
▁blessing	-10.9902
▁pet	-10.9906
▁belongs	-10.9907
▁traces	-10.991
▁anxiously	-10.9911
▁hunting	-10.9911
two	-10.9918
faced	-10.9931
open	-10.9935
Thénardier	-10.9941
wood	-10.9942
▁confine	-10.9943
owl	-10.9944
▁venture	-10.9944
▁apparent	-10.9954
off	-10.9957
▁col	-10.9969
acy	-10.9975
▁autumn	-10.9977
▁borrow	-10.9977
▁clutch	-10.9977
▁draught	-10.9977
▁equipment	-10.9977
▁interview	-10.9977
▁privilege	-10.9977
▁resource	-10.9977
▁wreck	-10.9977
▁Kanga	-10.9977
▁balance	-10.9977
▁swarm	-10.9977
▁cavern	-10.9977
▁inquiry	-10.9977
▁studied	-10.9977
▁garment	-10.9978
▁fowl	-10.9978
sight	-10.9978
▁balloon	-10.9979
▁cake	-10.9981
▁scent	-10.9988
▁spies	-10.9989
▁adored	-10.9995
▁coin	-11.0012
▁gather	-11.0025
▁pulling	-11.0026
▁endless	-11.0034
rip	-11.0034
▁properly	-11.0038
▁disdain	-11.0043
▁rout	-11.0048
▁alley	-11.005
▁marks	-11.0059
ja	-11.0067
▁conceive	-11.0069
Mademoiselle	-11.0069
close	-11.007
▁shower	-11.0074
bon	-11.0083
Eh	-11.009
▁guilt	-11.0092
▁brush	-11.0104
▁contemplation	-11.0104
▁crept	-11.0104
▁innocence	-11.0104
▁narrative	-11.0104
▁cigar	-11.0104
▁rascal	-11.0104
▁protest	-11.0104
▁facing	-11.0104
▁spell	-11.0104
▁array	-11.0104
▁argue	-11.0104
▁bind	-11.0105
▁favourite	-11.0105
▁authorities	-11.0106
▁unfold	-11.0115
▁sobs	-11.0115
▁needle	-11.012
▁lust	-11.0121
▁accused	-11.0122
▁charms	-11.0123
▁12	-11.0134
▁Sherlock	-11.0141
▁sorrowful	-11.015
more	-11.015
Get	-11.0156
Sure	-11.016
▁smaller	-11.016
▁owed	-11.0171
▁bone	-11.0175
▁repeating	-11.0177
pot	-11.0183
▁spin	-11.0184
▁Cossacks	-11.019
▁prevail	-11.0193
▁acted	-11.0223
past	-11.0224
▁catastrophe	-11.0232
▁Virgil	-11.0232
▁assembly	-11.0232
▁behaviour	-11.0232
▁extremity	-11.0232
▁revolt	-11.0232
▁skirt	-11.0232
▁spectre	-11.0232
▁supposing	-11.0232
▁thief	-11.0232
▁widow	-11.0232
▁eagle	-11.0232
▁eighteen	-11.0232
▁trench	-11.0232
▁subtle	-11.0232
▁blade	-11.0232
▁neighborhood	-11.0232
▁gale	-11.0233
asse	-11.0234
▁grain	-11.0235
▁helmet	-11.0235
▁noticing	-11.0236
master	-11.0237
▁stolen	-11.0239
▁demands	-11.0243
▁answering	-11.0246
▁calculated	-11.0247
▁Most	-11.025
▁cling	-11.0253
▁jet	-11.0253
▁Barrois	-11.0259
?...	-11.0261
▁bleeding	-11.0267
▁hath	-11.0267
though	-11.0273
▁CAPULET	-11.0278
▁eighty	-11.0286
▁Hill	-11.0288
▁Martian	-11.0288
ended	-11.0295
raw	-11.0297
lock	-11.03
Ye	-11.031
wise	-11.0319
▁youngest	-11.0324
▁arrange	-11.0325
20	-11.0325
▁capture	-11.0328
gate	-11.0336
Bah	-11.0353
▁spark	-11.036
▁benefactor	-11.0362
▁perfume	-11.0362
▁Tíkhon	-11.0362
▁Watson	-11.0362
▁bloom	-11.0362
▁community	-11.0362
▁marvellous	-11.0362
▁patience	-11.0362
▁vigorous	-11.0362
▁diminish	-11.0362
▁exhibit	-11.0362
▁frank	-11.0362
▁imitate	-11.0362
▁tragic	-11.0362
Shih	-11.0362
▁seizing	-11.0362
▁Duke	-11.0362
▁Morris	-11.0362
▁rattle	-11.0363
▁Moby	-11.0363
▁Far	-11.0364
▁mantle	-11.0365
▁score	-11.0366
▁nest	-11.0366
▁suspended	-11.0379
▁tossed	-11.038
pound	-11.0385
▁confirmed	-11.0386
▁Thrasymachus	-11.0391
▁offended	-11.0394
▁swallowed	-11.04
▁generations	-11.0404
▁admired	-11.0409
▁vaguely	-11.0417
minded	-11.0417
kh	-11.0431
▁Mamma	-11.0432
had	-11.044
uce	-11.0442
▁Bu	-11.0444
▁reveal	-11.0455
▁formal	-11.0458
▁issue	-11.0464
known	-11.0464
Eury	-11.0464
Javert	-11.0464
▁Never	-11.0468
return	-11.0469
Thy	-11.0469
▁Which	-11.0474
▁detach	-11.0487
▁XVI	-11.0491
▁cheese	-11.0493
▁elephant	-11.0493
▁probability	-11.0493
▁research	-11.0493
▁trifle	-11.0493
▁renown	-11.0493
▁happening	-11.0493
▁sweat	-11.0494
▁suppress	-11.0494
ville	-11.0494
▁lawyer	-11.0494
▁sunset	-11.0494
▁local	-11.0494
▁saint	-11.0495
cious	-11.0495
▁rail	-11.0496
fall	-11.0499
▁careless	-11.05
▁lap	-11.0506
▁thicket	-11.0506
▁Baptistin	-11.051
▁lid	-11.0511
▁Juno	-11.0512
▁hare	-11.0523
▁Ju	-11.0537
▁sage	-11.0538
▁suspected	-11.0544
▁crow	-11.0548
▁expenses	-11.055
▁hated	-11.055
▁screamed	-11.0554
je	-11.0561
▁mourn	-11.0563
▁granted	-11.0563
--------------	-11.0566
aged	-11.0571
▁closer	-11.0574
▁cards	-11.0575
Li	-11.0576
bit	-11.0577
▁punish	-11.0585
▁swallow	-11.0588
27	-11.0591
▁retreated	-11.0603
▁Right	-11.0606
▁conducted	-11.0607
▁sailing	-11.0612
▁Bennigsen	-11.0627
▁Speránski	-11.0627
▁appetite	-11.0627
▁centuries	-11.0627
▁contemplate	-11.0627
▁elapsed	-11.0627
▁elegant	-11.0627
▁fourteen	-11.0627
▁pleasing	-11.0627
▁skeleton	-11.0627
▁slender	-11.0627
▁yourselves	-11.0627
▁memories	-11.0627
Should	-11.0627
▁mischief	-11.0627
▁XIV	-11.0628
▁available	-11.0629
▁defective	-11.063
▁foul	-11.063
▁apartments	-11.0633
ière	-11.0634
▁drunken	-11.0635
▁fitted	-11.0635
▁deaf	-11.0636
▁exile	-11.0638
▁lip	-11.0644
▁Montparnasse	-11.0654
▁exchanged	-11.0664
▁swa	-11.0667
▁palm	-11.0667
▁glasses	-11.0674
▁push	-11.0683
▁bitterly	-11.0687
▁reasoning	-11.0689
Other	-11.0697
▁Chang	-11.0711
▁lawn	-11.072
▁condemn	-11.0723
▁introduce	-11.0727
▁obtaining	-11.0737
▁lean	-11.0741
▁drug	-11.0741
▁Without	-11.0742
glass	-11.0751
▁thanked	-11.0755
▁develop	-11.0757
▁chains	-11.0759
▁jewel	-11.0761
▁Magloire	-11.0762
▁WITH	-11.0762
▁downstairs	-11.0762
▁insurrection	-11.0762
▁involve	-11.0762
▁nephew	-11.0762
▁observing	-11.0762
▁pilot	-11.0762
▁pluck	-11.0762
▁province	-11.0762
▁rescue	-11.0762
▁tranquillity	-11.0762
▁tumble	-11.0762
▁register	-11.0762
▁stroll	-11.0762
▁flaming	-11.0762
▁swimming	-11.0762
cca	-11.0762
▁novel	-11.0762
▁allusion	-11.0763
▁planks	-11.0763
▁jacket	-11.0763
▁tread	-11.0763
▁daily	-11.0763
▁map	-11.0764
▁stopping	-11.0764
▁stake	-11.0766
▁upset	-11.0767
▁countries	-11.0772
▁belt	-11.0773
▁roused	-11.0782
▁tiny	-11.0784
▁classes	-11.0785
▁frowning	-11.0787
▁income	-11.0792
▁gallop	-11.0821
▁missed	-11.0825
▁doubtful	-11.083
Was	-11.0831
▁hurrying	-11.0845
▁renew	-11.086
mont	-11.0864
▁emerge	-11.0865
▁wink	-11.087
▁Both	-11.0873
Stop	-11.0874
Section	-11.0875
▁unconscious	-11.0876
Make	-11.0878
VI	-11.0882
UL	-11.0894
▁Rh	-11.0895
▁imitation	-11.0899
▁necessarily	-11.0899
▁vulgar	-11.0899
▁Venus	-11.0899
▁gulf	-11.0899
▁Among	-11.0899
▁incapable	-11.0899
▁closing	-11.09
▁neat	-11.09
Could	-11.09
▁payments	-11.0902
▁difficulties	-11.0906
▁washed	-11.0908
▁injured	-11.0912
▁enjoyment	-11.0913
▁incessantly	-11.0913
▁certainty	-11.0915
▁su	-11.0917
▁wandering	-11.0928
ual	-11.0935
ural	-11.0936
▁gathering	-11.0942
▁survive	-11.0944
▁belly	-11.0949
▁reminded	-11.0952
▁fan	-11.0959
▁leaders	-11.0977
▁Hills	-11.0978
▁boldly	-11.0998
▁Neither	-11.0998
▁summon	-11.1002
▁realize	-11.1006
▁jealous	-11.1026
▁corrupt	-11.1031
▁chap	-11.1031
▁WHICH	-11.1038
▁application	-11.1038
▁arriving	-11.1038
▁ascertain	-11.1038
▁consolation	-11.1038
▁democracy	-11.1038
▁obedience	-11.1038
▁wondrous	-11.1038
▁darling	-11.1038
▁flourish	-11.1038
▁combined	-11.1038
▁goose	-11.1038
▁tiger	-11.1038
▁meditate	-11.1038
▁foremost	-11.1038
▁politeness	-11.1041
▁patch	-11.1042
▁XII	-11.1043
▁confer	-11.1043
▁icon	-11.1044
▁detachment	-11.1045
▁Book	-11.1046
▁temples	-11.1048
▁critical	-11.1049
▁ringing	-11.1052
▁heroic	-11.1053
▁assent	-11.1054
▁relieved	-11.1059
▁lucky	-11.1063
14	-11.1065
▁elbows	-11.1068
▁Pip	-11.107
▁surrounding	-11.1071
▁heels	-11.1072
▁awakened	-11.1074
▁issued	-11.1074
▁barb	-11.1078
HE	-11.108
▁charged	-11.1082
▁unexpectedly	-11.1084
11	-11.1093
▁spectacle	-11.1116
▁enjoyed	-11.1131
▁alter	-11.1133
▁scatter	-11.114
loo	-11.1145
▁fling	-11.1146
▁nigh	-11.1154
Would	-11.1158
State	-11.1159
tail	-11.1173
▁waist	-11.1178
Between	-11.1179
▁Adeimantus	-11.1179
▁Capulet	-11.1179
▁Empire	-11.1179
▁harbour	-11.1179
▁independent	-11.1179
▁suspicious	-11.1179
▁tremendous	-11.1179
Behind	-11.1179
▁achieve	-11.1179
▁combination	-11.1179
▁lodging	-11.1179
▁roast	-11.1179
▁scratch	-11.1179
▁regain	-11.1179
▁Wellington	-11.1179
▁glide	-11.1179
▁smart	-11.1179
▁funny	-11.1179
▁rubles	-11.1179
▁fiend	-11.118
▁denied	-11.118
▁detest	-11.118
▁gallant	-11.118
burg	-11.118
▁mill	-11.1181
▁feverish	-11.1181
▁invest	-11.1182
▁gravely	-11.1182
▁theatre	-11.1184
▁Poor	-11.1184
▁startled	-11.1185
▁selfish	-11.1187
▁lend	-11.1188
mast	-11.1191
▁dame	-11.1191
▁vine	-11.1197
▁Ter	-11.1198
▁discipline	-11.1198
▁perfection	-11.1199
natured	-11.1206
▁attributed	-11.1206
▁adopted	-11.1207
mini	-11.1208
▁reins	-11.1212
▁reserved	-11.1213
▁forbid	-11.1215
▁betrayed	-11.1217
ular	-11.1223
▁Juliet	-11.1226
▁winding	-11.1228
▁rust	-11.124
▁perished	-11.1243
body	-11.1244
▁attained	-11.1245
▁expense	-11.126
▁attract	-11.1266
▁complying	-11.1269
▁correspond	-11.1279
▁stoop	-11.1282
▁glitter	-11.1282
▁betray	-11.1283
▁180	-11.1283
▁uttering	-11.1286
▁reserve	-11.1287
▁mid	-11.1295
stones	-11.1298
▁unite	-11.1305
mother	-11.1307
▁jaws	-11.1313
▁LI	-11.1315
▁avail	-11.1319
▁excess	-11.132
▁skull	-11.1321
Pharao	-11.1321
▁Pallas	-11.1321
▁calculation	-11.1321
▁deliberate	-11.1321
▁enlighten	-11.1321
▁monument	-11.1321
▁pupil	-11.1321
▁ruffian	-11.1321
▁satisfy	-11.1321
▁spectator	-11.1321
▁withdrew	-11.1321
▁Peleg	-11.1321
▁inflict	-11.1321
▁Simon	-11.1321
▁dismay	-11.1321
▁wrist	-11.1321
▁arrangements	-11.1323
▁festival	-11.1323
▁cough	-11.1325
▁assistant	-11.1325
▁standard	-11.1331
▁aroused	-11.1337
hold	-11.134
▁senseless	-11.1341
▁exposed	-11.1341
AY	-11.1341
▁whalemen	-11.1345
▁grieved	-11.1345
▁threatening	-11.1345
▁trot	-11.1351
▁sadness	-11.1351
mbr	-11.1353
ria	-11.1371
thou	-11.1382
▁landed	-11.1385
▁solemnly	-11.1386
▁extend	-11.1388
▁delivered	-11.1393
▁Give	-11.1395
▁Guard	-11.1409
eyed	-11.1414
▁chanced	-11.1421
▁print	-11.1429
lop	-11.1445
Next	-11.145
First	-11.145
Great	-11.145
Napoleon	-11.1451
▁cure	-11.1457
▁improve	-11.146
▁create	-11.1461
▁commence	-11.1464
▁affirm	-11.1466
▁cemetery	-11.1466
▁derivative	-11.1466
▁happily	-11.1466
▁perspiration	-11.1466
▁prejudice	-11.1466
▁swung	-11.1466
▁unnecessary	-11.1466
▁virgin	-11.1466
▁energetic	-11.1466
▁imperial	-11.1466
Beneath	-11.1466
▁placing	-11.1466
▁stove	-11.1466
▁prophet	-11.1467
▁Henry	-11.1467
▁overthrow	-11.1467
▁slipper	-11.1468
▁sphere	-11.1468
▁_“	-11.1469
▁upwards	-11.1469
▁chapel	-11.147
▁consequently	-11.1471
▁whereon	-11.1471
▁brick	-11.1471
▁gamin	-11.1471
▁dusk	-11.1472
▁prim	-11.1473
▁protection	-11.1475
▁diary	-11.1475
▁Pont	-11.1476
▁cub	-11.1477
▁rib	-11.1478
▁warmth	-11.149
confident	-11.1496
▁27	-11.1502
▁earnestly	-11.1505
▁punished	-11.1509
10	-11.1509
▁restless	-11.1512
▁acknowledged	-11.1515
▁strengthen	-11.1518
▁landing	-11.1541
▁leaped	-11.1543
neas	-11.1543
▁tan	-11.1547
▁waved	-11.1548
appe	-11.1561
▁parent	-11.1577
▁bleed	-11.1578
▁fed	-11.1579
Again	-11.16
▁contradict	-11.16
mount	-11.1601
count	-11.1602
▁spit	-11.1611
ux	-11.1612
▁Netherfield	-11.1613
▁betrothed	-11.1613
▁AGREE	-11.1613
▁Bildad	-11.1613
▁ambition	-11.1613
▁bucket	-11.1613
▁coffee	-11.1613
▁insurgent	-11.1613
▁leisure	-11.1613
▁Death	-11.1613
▁escort	-11.1613
▁hovel	-11.1613
▁slew	-11.1613
▁huntsman	-11.1613
▁vital	-11.1614
▁Col	-11.1614
▁Petit	-11.1614
LIMI	-11.1614
▁neighbourhood	-11.1614
▁confound	-11.1614
▁royalties	-11.1614
▁compass	-11.1614
▁glare	-11.1614
▁cattle	-11.1615
▁performance	-11.1616
▁chatter	-11.1617
▁treatment	-11.1618
▁saving	-11.1622
▁XIII	-11.1634
▁respectfully	-11.1636
▁witch	-11.1642
▁Eu	-11.1644
▁opposed	-11.1647
▁clasped	-11.1647
rou	-11.1651
▁altered	-11.1654
▁mourning	-11.1658
axe	-11.166
▁climbed	-11.1668
boy	-11.1678
very	-11.1699
smith	-11.1701
humour	-11.1703
▁shoe	-11.1711
placement	-11.1711
▁Holy	-11.1717
▁Ben	-11.1723
▁suffice	-11.1728
▁[2	-11.173
▁appearing	-11.1744
▁threat	-11.1748
Another	-11.1751
Paris	-11.1752
French	-11.1752
Having	-11.1754
However	-11.1759
turn	-11.1761
▁cudgel	-11.1763
▁exempt	-11.1763
▁fountain	-11.1763
▁livid	-11.1763
▁opponent	-11.1763
▁prudent	-11.1763
▁recognise	-11.1763
▁symptom	-11.1763
▁Kitty	-11.1763
▁Signor	-11.1763
▁farewell	-11.1763
▁opposition	-11.1763
▁Therefore	-11.1763
▁mould	-11.1763
▁Prussia	-11.1763
▁solve	-11.1763
▁entity	-11.1764
▁cupboard	-11.1764
▁haunt	-11.1764
Speak	-11.1764
digger	-11.1764
▁vanity	-11.1765
▁Arab	-11.1765
▁limb	-11.1766
▁wail	-11.1766
▁Spartan	-11.1769
▁Sea	-11.177
▁supported	-11.1772
▁procession	-11.1777
▁amidst	-11.1783
▁vile	-11.1786
▁Leviathan	-11.1786
▁threatened	-11.1786
▁doorway	-11.1792
16	-11.1801
▁rarely	-11.181
▁persuaded	-11.181
Stand	-11.1818
▁conveyed	-11.1821
15	-11.1822
humor	-11.1824
▁watery	-11.1825
hoo	-11.1829
▁howling	-11.1847
▁sharply	-11.1866
▁invent	-11.1869
▁mute	-11.1873
▁neglect	-11.1875
▁avoided	-11.1891
▁resolute	-11.1891
▁precise	-11.1891
▁ban	-11.1894
gone	-11.1894
▁XV	-11.1897
▁scarce	-11.1898
Most	-11.191
incomprehensible	-11.1914
▁Eumaeus	-11.1914
▁Jordan	-11.1914
▁Kurágin	-11.1914
▁Nesvítski	-11.1914
▁bewildered	-11.1914
▁exquisite	-11.1914
▁redistribut	-11.1914
▁sunshine	-11.1914
▁venerable	-11.1914
▁worship	-11.1914
Impossible	-11.1914
▁Hawkins	-11.1914
▁Véra	-11.1914
▁appreciat	-11.1914
▁reduced	-11.1914
▁review	-11.1914
▁shroud	-11.1914
▁surrender	-11.1914
▁banquet	-11.1914
▁lonely	-11.1914
▁establishment	-11.1914
▁torrent	-11.1914
▁repent	-11.1914
▁contend	-11.1914
▁riot	-11.1914
▁deemed	-11.1915
▁ardent	-11.1915
▁tumultuous	-11.1915
▁disagreeable	-11.1915
▁sprung	-11.1915
▁token	-11.1918
▁sanct	-11.1919
▁pink	-11.192
▁American	-11.1921
▁egg	-11.1921
▁suck	-11.1923
cou	-11.1932
▁footman	-11.1937
▁disclaimer	-11.1941
▁timidly	-11.1947
lab	-11.1958
▁pushing	-11.1959
▁Dol	-11.1992
▁generation	-11.2018
▁flo	-11.2019
▁recommend	-11.2029
▁oppose	-11.2033
▁fulfil	-11.2037
▁staying	-11.2042
▁recent	-11.2045
under	-11.2053
▁donate	-11.2061
▁CO	-11.2061
Dantès	-11.2062
field	-11.2062
father	-11.2062
about	-11.2065
▁Tydides	-11.2068
▁audience	-11.2068
▁bundle	-11.2068
▁bushes	-11.2068
▁eyebrows	-11.2068
▁obstacle	-11.2068
RIAR	-11.2068
▁bayonet	-11.2068
▁drift	-11.2068
▁publish	-11.2068
▁copied	-11.2068
▁cherish	-11.2068
▁silly	-11.2068
▁gallery	-11.2068
(3)	-11.2069
▁dragging	-11.2069
▁spiritual	-11.2069
▁violat	-11.207
▁impart	-11.2071
▁waving	-11.2071
▁travelled	-11.2073
▁gap	-11.2075
▁rapidity	-11.2076
▁brand	-11.2077
▁frontier	-11.208
▁Mel	-11.2086
road	-11.2088
▁Montfermeil	-11.209
▁Port	-11.2093
▁40	-11.2094
▁wandered	-11.2101
▁retained	-11.2123
▁Whether	-11.2128
vy	-11.2135
▁burnt	-11.2136
▁bowing	-11.2149
bble	-11.2158
▁Love	-11.2173
▁edition	-11.2177
▁retreating	-11.22
door	-11.2205
Morrel	-11.222
white	-11.222
ibility	-11.2224
BENVOLIO	-11.2224
▁Luigi	-11.2224
▁Pastrini	-11.2224
▁amazed	-11.2224
▁apprehension	-11.2224
▁dazzling	-11.2224
▁describing	-11.2224
▁faculty	-11.2224
▁ferocious	-11.2224
▁niece	-11.2224
▁offspring	-11.2224
Karatáev	-11.2224
▁(2)	-11.2224
▁pallor	-11.2224
haired	-11.2224
Friend	-11.2224
▁supplied	-11.2224
Fierce	-11.2224
▁blast	-11.2225
▁panic	-11.2225
▁cordial	-11.2226
▁disappointment	-11.2228
▁herald	-11.2231
▁suitable	-11.2232
▁repress	-11.2232
▁folds	-11.2233
MENT	-11.2236
▁invade	-11.2237
▁realise	-11.224
▁chat	-11.2246
bone	-11.2252
▁amused	-11.2256
▁tormented	-11.2262
▁entertained	-11.2276
titude	-11.2277
▁build	-11.2285
CK	-11.2288
▁sting	-11.2295
▁ripe	-11.2296
▁attorney	-11.2304
▁bandage	-11.2304
REC	-11.2309
▁rob	-11.2313
▁High	-11.2321
▁awaken	-11.2329
▁murdered	-11.2333
▁drown	-11.2344
ANT	-11.2348
▁approve	-11.2348
▁intent	-11.2355
rick	-11.2359
▁wan	-11.2359
Near	-11.2376
▁dew	-11.2378
▁yielded	-11.2378
Meanwhile	-11.2381
Those	-11.2381
Sónya	-11.2382
▁Phaeacian	-11.2383
▁cautious	-11.2383
▁surprising	-11.2383
▁THAT	-11.2383
▁atmosphere	-11.2383
▁disgust	-11.2383
▁paradise	-11.2383
▁tavern	-11.2383
▁thumb	-11.2383
▁whatsoever	-11.2383
▁afflict	-11.2383
MERCUTIO	-11.2383
▁Life	-11.2383
▁shaft	-11.2383
▁essence	-11.2383
▁crumb	-11.2383
▁grove	-11.2383
▁augment	-11.2383
▁azure	-11.2383
▁bury	-11.2383
▁console	-11.2383
▁pretext	-11.2384
▁1812	-11.2384
fulness	-11.2384
▁stall	-11.2384
▁falsehood	-11.2384
▁amusing	-11.2385
▁brute	-11.2385
Every	-11.2386
▁oxen	-11.2386
▁resistance	-11.2386
▁sup	-11.2387
▁Lake	-11.2389
▁planet	-11.2398
▁extract	-11.24
▁raft	-11.2412
▁Toll	-11.2416
Although	-11.242
▁passers	-11.2421
Down	-11.2429
▁corps	-11.2432
▁Doctor	-11.2437
▁blushed	-11.2443
▁quivering	-11.2449
▁hay	-11.2451
▁center	-11.2454
▁respected	-11.2462
▁paced	-11.2462
▁NO	-11.2475
▁cent	-11.2481
Dead	-11.2484
▁dreamed	-11.2495
▁procure	-11.2506
▁torment	-11.2515
Com	-11.2518
▁envelope	-11.2523
Whom	-11.2526
▁lib	-11.2528
▁respectful	-11.2533
ancy	-11.2535
▁dazzled	-11.2544
▁embroider	-11.2544
▁innumerable	-11.2544
▁struggling	-11.2544
▁uncommon	-11.2544
▁cultivat	-11.2544
▁retorted	-11.2544
▁gossip	-11.2544
▁captive	-11.2544
Exactly	-11.2544
uvre	-11.2544
▁domain	-11.2544
▁keel	-11.2545
▁bishop	-11.2545
▁jeweller	-11.2545
▁1815	-11.2545
▁referred	-11.2545
Even	-11.2546
shka	-11.2546
nothing	-11.2546
▁excessive	-11.2546
▁raging	-11.2546
Like	-11.2548
▁daybreak	-11.2549
▁career	-11.2554
▁moist	-11.2556
More	-11.2559
▁inches	-11.2561
▁Four	-11.2564
▁Ten	-11.2569
▁unconsciously	-11.2571
▁Bossuet	-11.2578
▁seamen	-11.2578
▁cursed	-11.2579
▁invented	-11.2586
▁lowering	-11.2587
▁conceived	-11.2589
▁cage	-11.2594
▁Monseigneur	-11.2602
Later	-11.2609
▁Several	-11.2613
▁lifting	-11.2626
terior	-11.264
▁groaning	-11.2664
▁weigh	-11.2691
*	-11.2704
▁cartridge	-11.2708
Copyright	-11.2708
Tholomyès	-11.2708
▁apparition	-11.2708
▁biscuit	-11.2708
▁desirous	-11.2708
▁embarrassed	-11.2708
▁fathom	-11.2708
▁impatience	-11.2708
▁introduction	-11.2708
▁perceiving	-11.2708
▁plunder	-11.2708
▁serene	-11.2708
▁swineherd	-11.2708
▁thrice	-11.2708
▁tobacco	-11.2708
▁vanquish	-11.2708
▁Wicked	-11.2708
▁unseen	-11.2708
▁marquis	-11.2708
▁preferred	-11.2711
▁hoping	-11.2711
▁apt	-11.2715
▁shy	-11.2718
▁ii	-11.2718
▁overtake	-11.272
▁Bill	-11.2722
▁respectable	-11.2724
▁wretchedness	-11.2724
▁puzzled	-11.2726
▁searching	-11.274
▁dug	-11.2747
▁bulwarks	-11.2755
▁moan	-11.2761
▁dined	-11.2765
▁Grantaire	-11.2767
▁Bri	-11.2778
hall	-11.2793
▁surround	-11.2796
▁coldly	-11.2799
▁largest	-11.2802
▁whiteness	-11.2803
▁maintained	-11.2804
▁flashed	-11.2807
▁sternly	-11.2811
Pro	-11.2825
▁stationed	-11.283
▁penetrate	-11.284
colored	-11.2849
▁XX	-11.2856
duct	-11.2863
MER	-11.2867
▁elect	-11.2875
▁DAMAGE	-11.2875
▁Alcinous	-11.2875
▁Olympus	-11.2875
▁faculties	-11.2875
▁illustrious	-11.2875
▁lieutenant	-11.2875
▁prodigious	-11.2875
▁thieves	-11.2875
▁timber	-11.2875
▁wrinkled	-11.2875
▁clung	-11.2875
▁reconcil	-11.2875
▁twisted	-11.2875
Meantime	-11.2875
▁liberal	-11.2875
▁alternate	-11.2875
▁presume	-11.2875
▁mariner	-11.2875
▁jury	-11.2875
▁thigh	-11.2875
▁shun	-11.2875
▁detect	-11.2875
▁Achaeans	-11.2876
▁grandmother	-11.2876
▁Bald	-11.2876
scribe	-11.2876
▁bite	-11.2876
▁petty	-11.2877
▁Tsar	-11.2877
▁sparkling	-11.2877
▁carries	-11.2878
▁customary	-11.2878
▁pounds	-11.2879
worth	-11.2882
Long	-11.2883
▁chart	-11.2883
▁expressive	-11.2883
▁forgetting	-11.2886
▁opera	-11.2889
▁vest	-11.2896
born	-11.29
▁Benedetto	-11.2904
▁hinder	-11.2909
position	-11.2914
▁neglected	-11.2918
mark	-11.2921
▁educated	-11.2924
▁clad	-11.2933
▁union	-11.2933
Hear	-11.2941
▁workman	-11.2959
▁clo	-11.2961
▁respecting	-11.2964
▁handful	-11.297
mission	-11.2975
▁impress	-11.2997
hill	-11.3
▁clasp	-11.3008
▁invite	-11.3011
ax	-11.3021
▁hearth	-11.3038
establish	-11.3044
!...”	-11.3044
Luxembourg	-11.3044
▁Faubourg	-11.3044
▁complicated	-11.3044
▁gravity	-11.3044
▁resemblance	-11.3044
▁symbol	-11.3044
▁impetuous	-11.3044
▁maxim	-11.3044
▁refusal	-11.3044
▁Teresa	-11.3044
▁brutal	-11.3044
▁copper	-11.3044
▁ambush	-11.3044
▁Marquis	-11.3045
▁lunch	-11.3045
▁void	-11.3045
▁frantic	-11.3045
▁Place	-11.3045
▁stirred	-11.3047
41	-11.305
▁duck	-11.3056
▁stammered	-11.3057
woman	-11.3057
Each	-11.3061
Kut	-11.3061
▁Bilíbin	-11.3068
▁growth	-11.307
▁converted	-11.3078
▁penetrated	-11.308
▁joyfully	-11.3081
▁wondered	-11.3103
▁endured	-11.3103
▁jar	-11.3104
▁termed	-11.312
▁bathed	-11.3124
▁planted	-11.3131
▁glowing	-11.3132
ique	-11.3141
ject	-11.3142
▁urge	-11.3147
▁covering	-11.3193
▁curse	-11.3199
▁praying	-11.3202
▁beaut	-11.3206
stained	-11.3211
▁gen	-11.3213
▁differ	-11.3214
▁frighten	-11.3215
Hurrah	-11.3217
stricken	-11.3217
▁Livesey	-11.3217
▁delicacy	-11.3217
▁indignant	-11.3217
▁scaffold	-11.3217
▁despatch	-11.3217
▁sketch	-11.3217
▁vexed	-11.3217
▁marvel	-11.3217
▁expand	-11.3217
▁Edward	-11.3217
▁globe	-11.3217
▁screen	-11.3217
▁animation	-11.3217
▁spider	-11.3217
▁adorn	-11.3217
▁ditch	-11.3217
Excuse	-11.3217
▁saber	-11.322
▁readiness	-11.3222
covered	-11.3224
▁sunlight	-11.3224
5,000	-11.3225
▁cash	-11.3226
▁improvement	-11.3226
▁groom	-11.3226
▁superiority	-11.3228
▁hue	-11.323
three	-11.323
▁contradiction	-11.3232
Had	-11.3232
Cla	-11.3234
▁Out	-11.3235
▁employment	-11.3236
▁Mock	-11.3238
aeus	-11.3241
▁impatiently	-11.325
▁hopeless	-11.3259
▁drowned	-11.3259
wind	-11.326
▁desk	-11.3262
▁painter	-11.3272
▁weaker	-11.328
▁sable	-11.3287
▁metal	-11.3289
ATION	-11.3295
▁sincere	-11.3302
does	-11.3307
▁Du	-11.3324
▁whispering	-11.3327
▁Cape	-11.3328
▁thereby	-11.3342
▁boar	-11.3345
▁hasty	-11.3351
▁flowed	-11.3356
▁attribute	-11.3358
30	-11.3374
▁expressing	-11.3386
▁inspect	-11.3388
▁madam	-11.339
IGHT	-11.3391
▁marched	-11.3392
▁Aristotle	-11.3392
▁Busoni	-11.3392
▁Emerald	-11.3392
▁Vulcan	-11.3392
▁artificial	-11.3392
▁enclosure	-11.3392
▁genuine	-11.3392
▁militia	-11.3392
▁miracle	-11.3392
▁vicinity	-11.3392
▁whistling	-11.3392
▁bargain	-11.3392
▁grandeur	-11.3392
▁provoke	-11.3392
▁louis	-11.3392
▁contest	-11.3392
▁rubbed	-11.3393
▁prioress	-11.3393
▁dropping	-11.3394
▁ven	-11.3395
▁temperance	-11.3397
▁prose	-11.3405
About	-11.3408
▁tub	-11.3409
▁pious	-11.341
Laws	-11.3417
▁lieu	-11.3429
▁demon	-11.3431
bid	-11.3432
▁bravest	-11.3438
▁enveloped	-11.344
▁spar	-11.3447
▁guarded	-11.3448
▁nowhere	-11.3452
▁rub	-11.3456
istic	-11.3471
▁reigned	-11.3494
▁float	-11.3495
▁dome	-11.3498
iety	-11.3503
▁tasted	-11.3534
▁catching	-11.3535
▁adding	-11.3545
▁citizen	-11.3552
after	-11.3558
ization	-11.3571
▁LAWRENCE	-11.3571
▁Turtle	-11.3571
▁appointment	-11.3571
▁baggage	-11.3571
▁believing	-11.3571
▁decisive	-11.3571
▁drooping	-11.3571
▁empire	-11.3571
▁expedition	-11.3571
▁fugitive	-11.3571
▁inclination	-11.3571
▁inevitable	-11.3571
▁irregular	-11.3571
▁irresistible	-11.3571
▁practise	-11.3571
▁rhythm	-11.3571
▁scoundrel	-11.3571
▁serving	-11.3571
▁meditation	-11.3571
▁universe	-11.3571
▁steadily	-11.3571
Brother	-11.3571
▁expire	-11.3571
▁alliance	-11.3571
▁avenge	-11.3571
▁contemptuous	-11.3571
▁shutters	-11.3571
▁verge	-11.3571
Plain	-11.3571
▁transferred	-11.3571
▁railway	-11.3572
▁stockings	-11.3573
▁hounds	-11.3573
▁rap	-11.3573
▁marching	-11.3574
▁frock	-11.3575
▁outward	-11.3576
▁amusement	-11.3577
▁sleepy	-11.3581
▁entry	-11.3581
▁mustache	-11.3586
▁warlike	-11.3587
▁Use	-11.3588
Through	-11.3589
temper	-11.3591
▁witnesses	-11.3591
▁released	-11.3593
Mo	-11.3593
rise	-11.3595
▁frowned	-11.3604
▁protector	-11.361
▁approved	-11.361
▁floated	-11.3612
lding	-11.3616
▁prevailed	-11.3625
▁smallest	-11.3629
▁healthy	-11.3629
q	-11.3636
▁dusty	-11.3636
ugged	-11.3645
▁fasten	-11.3662
▁paint	-11.3664
eight	-11.3709
▁lace	-11.3736
▁disappoint	-11.3749
▁amuse	-11.375
Picpus	-11.3753
▁Except	-11.3753
▁Vienna	-11.3753
▁adjoining	-11.3753
▁embarrassment	-11.3753
▁journal	-11.3753
▁livres	-11.3753
▁serpent	-11.3753
▁thirteen	-11.3753
▁Charles	-11.3753
▁Night	-11.3753
▁assault	-11.3753
▁clue	-11.3753
▁anteroom	-11.3753
▁relating	-11.3753
▁interfere	-11.3753
▁sleigh	-11.3753
▁Murat	-11.3753
▁Church	-11.3753
chaise	-11.3753
▁extinguished	-11.3753
▁horseback	-11.3754
▁wiped	-11.3754
▁midday	-11.3754
Half	-11.3754
▁pressure	-11.3755
▁speedily	-11.3755
RES	-11.3755
▁brace	-11.376
▁cove	-11.3766
▁traitor	-11.3768
▁willingly	-11.3769
▁responded	-11.3769
▁Maire	-11.3771
cloth	-11.3772
▁honorable	-11.3775
twenty	-11.3775
▁preceded	-11.3777
▁thirsty	-11.3778
since	-11.3779
point	-11.3779
▁seventh	-11.3783
▁possesses	-11.3784
▁stamped	-11.379
▁sixth	-11.3799
▁extending	-11.3803
▁renewed	-11.3805
Once	-11.3808
▁purchased	-11.3813
▁afforded	-11.3836
▁cracked	-11.3836
▁struggled	-11.3855
▁wander	-11.386
▁Sw	-11.388
▁accordingly	-11.3899
▁announce	-11.3899
▁hurl	-11.39
▁rejoice	-11.3903
▁derive	-11.3904
▁polite	-11.391
▁continual	-11.3915
▁provision	-11.3921
▁melt	-11.3926
▁stole	-11.3927
▁swam	-11.3933
▁instruct	-11.3934
▁inherit	-11.3937
▁oligarch	-11.3937
▁Gryphon	-11.3938
▁Meryton	-11.3938
▁anticipate	-11.3938
▁blazing	-11.3938
▁ceremony	-11.3938
▁displeased	-11.3938
▁grotto	-11.3938
▁institution	-11.3938
▁reassure	-11.3938
▁rigid	-11.3938
▁strife	-11.3938
▁terribly	-11.3938
▁obstinate	-11.3938
▁perpetual	-11.3938
▁strait	-11.3938
▁subsequent	-11.3938
▁Dutch	-11.3938
▁creep	-11.3938
▁disaster	-11.3938
Suppose	-11.3938
▁Flint	-11.3938
▁Hatter	-11.3938
▁launch	-11.3938
▁plead	-11.3938
▁uproar	-11.3938
▁knight	-11.3938
▁Aunt	-11.3938
▁mixture	-11.3938
▁bald	-11.3938
▁indicating	-11.3938
▁pacing	-11.3939
▁forbidden	-11.3939
▁studies	-11.394
▁stirring	-11.394
▁House	-11.3941
▁hospitality	-11.3943
key	-11.3944
▁simultaneously	-11.3944
ological	-11.3944
agged	-11.3944
▁civility	-11.3946
▁jug	-11.3951
▁elevated	-11.3952
▁polished	-11.3956
▁odor	-11.3958
▁confession	-11.3958
▁inhabited	-11.397
▁carelessly	-11.397
Poor	-11.397
ebook	-11.3973
▁Frenchmen	-11.3973
▁calmness	-11.3975
▁robe	-11.398
▁Five	-11.3981
▁weighed	-11.3982
Fish	-11.3983
Papa	-11.3991
▁selected	-11.3997
▁Last	-11.3999
▁tie	-11.4004
▁pretended	-11.4012
▁Art	-11.4014
▁warned	-11.4022
▁Thetis	-11.4028
▁lacking	-11.4031
these	-11.4033
▁personally	-11.4034
path	-11.4043
Sire	-11.4047
▁wad	-11.4054
Leave	-11.4064
▁fairy	-11.4071
▁measured	-11.4078
▁whoever	-11.4083
18	-11.4087
▁excite	-11.409
▁invalid	-11.4093
▁wage	-11.4106
▁stud	-11.411
haul	-11.411
▁temple	-11.4113
▁league	-11.4113
▁offend	-11.4119
▁import	-11.4124
▁ecstasy	-11.4126
▁fancies	-11.4126
▁knit	-11.4126
▁security	-11.4126
Jacques	-11.4127
▁April	-11.4127
▁Brujon	-11.4127
▁blouse	-11.4127
▁convenient	-11.4127
▁dagger	-11.4127
▁knoll	-11.4127
▁remembrance	-11.4127
▁resembling	-11.4127
▁wrinkles	-11.4127
▁descent	-11.4127
▁overflow	-11.4127
lysées	-11.4127
▁stifle	-11.4127
▁Horse	-11.4127
▁quay	-11.4127
Antoine	-11.4127
▁gross	-11.4127
▁pensive	-11.4127
▁lurk	-11.4127
▁implore	-11.4127
▁residence	-11.4127
▁function	-11.4127
▁habitual	-11.4127
▁prowl	-11.4128
▁employee	-11.4128
▁rational	-11.4128
▁victorious	-11.4128
▁hereafter	-11.4133
▁washing	-11.4134
▁successive	-11.4135
▁invention	-11.4136
▁curve	-11.4144
armed	-11.4145
Sainte	-11.4149
▁semi	-11.4154
▁communicated	-11.4155
Right	-11.4155
Achilles	-11.4156
Denísov	-11.4156
Franz	-11.4156
▁childish	-11.4159
liest	-11.4164
▁regimental	-11.4168
coloured	-11.4169
▁rot	-11.4177
▁clearness	-11.4182
▁enchanted	-11.4186
▁intending	-11.4188
Read	-11.4188
vant	-11.4189
▁discussed	-11.419
▁tenth	-11.4196
▁mystic	-11.4202
▁louder	-11.4204
rope	-11.4209
▁hunted	-11.4214
Va	-11.4223
▁neighboring	-11.4225
▁faster	-11.4229
nouncing	-11.4236
▁roared	-11.4245
▁resolve	-11.4284
▁compare	-11.4287
▁attentive	-11.4296
coming	-11.4312
▁Peleus	-11.4319
▁capacity	-11.4319
▁comparative	-11.4319
▁document	-11.4319
▁ingenious	-11.4319
▁parallel	-11.4319
▁romance	-11.4319
▁shrill	-11.4319
▁speculation	-11.4319
▁trumpet	-11.4319
▁uncomfortable	-11.4319
▁Lycian	-11.4319
▁borzoi	-11.4319
▁investigation	-11.4319
▁nostrils	-11.4319
▁telegraph	-11.4319
▁Spain	-11.4319
▁rattling	-11.4319
▁unworthy	-11.4319
▁viscount	-11.4319
▁(1)	-11.4319
▁sharing	-11.4319
▁construction	-11.4319
▁softened	-11.4319
▁hinges	-11.4319
▁whirlwind	-11.4319
▁robbed	-11.4319
▁consume	-11.4319
▁zeal	-11.4319
▁constructed	-11.4319
▁sunrise	-11.4321
Stay	-11.4323
attle	-11.4323
▁fireplace	-11.4325
▁pomp	-11.4325
▁Mason	-11.4325
▁hearse	-11.4326
▁corruption	-11.4329
▁brandy	-11.4334
▁refer	-11.4335
▁mechanically	-11.4336
▁imposed	-11.4337
▁swamp	-11.4339
▁coil	-11.4346
▁discharged	-11.4351
Lord	-11.4352
Andrew	-11.4353
▁dresses	-11.4373
▁stooping	-11.4373
▁executioner	-11.4375
▁plump	-11.439
▁model	-11.4392
▁grip	-11.4408
▁complaint	-11.4411
▁swaying	-11.4416
▁witnessed	-11.4425
Call	-11.4432
▁Duc	-11.4442
eux	-11.4456
▁tune	-11.4458
▁mob	-11.4473
▁adopt	-11.4476
▁convert	-11.4476
▁toilet	-11.4484
AND	-11.4499
▁exert	-11.4503
▁stain	-11.4508
LADY	-11.4515
lmighty	-11.4515
▁Argive	-11.4515
▁Clerval	-11.4515
▁Lucien	-11.4515
▁Minister	-11.4515
▁Presently	-11.4515
▁Tashtego	-11.4515
▁Woking	-11.4515
▁bronze	-11.4515
▁distrust	-11.4515
▁excellence	-11.4515
▁harvest	-11.4515
▁indignation	-11.4515
▁pattern	-11.4515
▁recognizing	-11.4515
▁strand	-11.4515
▁subterranean	-11.4515
▁tragedy	-11.4515
▁decent	-11.4515
▁philosophical	-11.4515
▁enlarg	-11.4515
▁orphan	-11.4515
Dieu	-11.4515
▁electric	-11.4515
▁jerk	-11.4515
▁canvas	-11.4516
▁bristl	-11.4517
▁fishery	-11.4517
▁bay	-11.4517
▁complexion	-11.4518
▁production	-11.4521
▁spade	-11.4522
▁seventy	-11.4525
▁madman	-11.453
▁clap	-11.453
▁national	-11.4531
▁heartily	-11.4537
▁prolonged	-11.4539
load	-11.4546
Since	-11.4552
Enjolras	-11.4552
▁fulfilled	-11.4553
Without	-11.4556
▁offence	-11.4557
▁corresponding	-11.457
▁coal	-11.4571
▁musician	-11.4573
▁dimly	-11.4584
▁tenderly	-11.4602
▁irony	-11.4634
31	-11.4657
▁enthusiastic	-11.4672
47	-11.4683
▁28	-11.4685
▁abstract	-11.4699
▁sq	-11.4706
▁err	-11.4713
▁feature	-11.4714
▁wrap	-11.4715
Paradise	-11.4715
REACH	-11.4715
Remember	-11.4715
▁Barclay	-11.4715
▁HISPANIOLA	-11.4715
▁Jupiter	-11.4715
▁Pylos	-11.4715
▁York	-11.4715
▁dialogue	-11.4715
▁fantastic	-11.4715
▁literature	-11.4715
▁permanent	-11.4715
▁prefect	-11.4715
▁radiance	-11.4715
▁restrictions	-11.4715
▁romantic	-11.4715
▁superstition	-11.4715
▁supplies	-11.4715
▁unequal	-11.4715
▁vexation	-11.4715
▁Auteuil	-11.4715
▁Winnie	-11.4715
▁chestnut	-11.4715
▁client	-11.4715
▁brood	-11.4715
Around	-11.4715
▁billows	-11.4715
▁illusion	-11.4715
hazard	-11.4715
▁Basque	-11.4715
▁injury	-11.4715
▁rogue	-11.4715
▁tiptoe	-11.4715
▁surpass	-11.4715
▁ordain	-11.4715
▁limp	-11.4715
▁stature	-11.4716
▁navy	-11.4716
▁arrangement	-11.4716
▁begging	-11.4718
▁failure	-11.4719
▁prick	-11.472
▁Highness	-11.4721
▁favourable	-11.4723
▁curate	-11.4723
ULL	-11.4723
▁deducti	-11.4724
▁solemnity	-11.4726
▁eagerness	-11.4728
▁alongside	-11.4728
▁harmless	-11.4728
▁succession	-11.4731
▁jealousy	-11.4732
▁equality	-11.4733
erms	-11.4738
34	-11.474
▁irritated	-11.4741
▁reside	-11.4743
▁divin	-11.4744
▁boiling	-11.475
Edmond	-11.4756
▁plank	-11.4773
▁endeavoured	-11.478
▁elderly	-11.4785
Cap	-11.4797
87	-11.4802
---------------	-11.4807
▁unto	-11.4809
▁route	-11.4814
matic	-11.4851
▁accomplish	-11.4869
▁attach	-11.4876
▁Tar	-11.4879
▁overwhelm	-11.488
▁profess	-11.4896
bri	-11.49
▁Turk	-11.4919
▁snuff	-11.4919
Gentlemen	-11.4919
Théodule	-11.4919
▁Duchess	-11.4919
▁February	-11.4919
▁Kansas	-11.4919
▁Pemberley	-11.4919
▁Plumet	-11.4919
▁Royalty	-11.4919
▁Toussaint	-11.4919
▁Yanina	-11.4919
▁accusation	-11.4919
▁circulat	-11.4919
▁crimson	-11.4919
▁ghastly	-11.4919
▁imperfect	-11.4919
▁liquid	-11.4919
▁petition	-11.4919
▁plaster	-11.4919
▁ponderous	-11.4919
▁promoting	-11.4919
▁prostrate	-11.4919
▁pursuing	-11.4919
▁sceptre	-11.4919
▁sleeves	-11.4919
▁structure	-11.4919
▁ensued	-11.4919
▁raven	-11.4919
▁severity	-11.4919
▁glories	-11.4919
▁jolly	-11.4919
OTHER	-11.4919
▁dumb	-11.4919
▁expend	-11.4919
▁implied	-11.4919
vocation	-11.4919
▁antique	-11.4919
▁relic	-11.4919
▁wilt	-11.4919
▁Merion	-11.4919
▁Amphi	-11.4919
▁corse	-11.4919
▁churchyard	-11.492
▁proverb	-11.492
▁envy	-11.492
▁pearls	-11.492
▁dismal	-11.492
▁signature	-11.4921
▁job	-11.4922
▁Everyone	-11.4924
▁thyself	-11.4926
▁concentrated	-11.4927
▁paving	-11.4928
▁van	-11.4928
▁modesty	-11.4931
▁gall	-11.4932
▁dispersed	-11.4937
▁defined	-11.494
▁temptation	-11.4949
▁rejoiced	-11.4957
▁Day	-11.4958
▁hurled	-11.4962
▁melted	-11.4962
Everything	-11.4964
Besides	-11.4965
▁widest	-11.4968
oul	-11.4973
▁seaman	-11.4976
▁infinitely	-11.4987
▁snatched	-11.4989
▁painfully	-11.4992
▁tools	-11.5003
thought	-11.5022
fact	-11.5029
▁congratulate	-11.5036
▁confide	-11.5084
▁confirm	-11.5087
▁exhaust	-11.5089
▁discharge	-11.5093
▁grieve	-11.5093
Far	-11.5124
▁Bonapartist	-11.5127
▁Temple	-11.5127
▁blunder	-11.5127
▁charitable	-11.5127
▁denounce	-11.5127
▁determination	-11.5127
▁discourse	-11.5127
▁happier	-11.5127
▁inevitability	-11.5127
▁insignificant	-11.5127
▁luxury	-11.5127
▁plague	-11.5127
▁specified	-11.5127
▁Author	-11.5127
▁Laertes	-11.5127
▁strove	-11.5127
▁National	-11.5127
▁breach	-11.5127
▁charity	-11.5127
▁fisherman	-11.5127
▁instinctively	-11.5127
▁pencil	-11.5127
▁clatter	-11.5127
▁constrain	-11.5127
▁worm	-11.5127
▁hoofs	-11.5127
▁ardour	-11.5128
▁carved	-11.5128
▁Court	-11.5128
▁yoke	-11.5128
▁sideways	-11.5128
▁civilized	-11.5128
▁moderate	-11.5129
▁loaf	-11.5129
▁peak	-11.5129
▁modest	-11.513
▁EX	-11.513
▁brook	-11.5131
▁duke	-11.5132
▁rash	-11.5132
▁preach	-11.5133
▁stepping	-11.5133
Merry	-11.5134
▁shovel	-11.5135
uver	-11.5137
▁courageous	-11.5138
▁XVII	-11.5139
▁devise	-11.514
▁alteration	-11.5144
rier	-11.5155
Back	-11.5156
▁dismissed	-11.5156
▁federa	-11.5156
▁park	-11.5158
▁clay	-11.5162
▁deposited	-11.5162
▁shaken	-11.5166
▁procured	-11.5172
▁sufficed	-11.5176
Captain	-11.5178
Miss	-11.5181
▁advised	-11.5188
▁galloping	-11.5189
35	-11.5195
▁snowy	-11.5201
▁Val	-11.5216
say	-11.5224
▁dialectic	-11.5224
▁Arch	-11.5237
▁frown	-11.5263
Put	-11.5276
▁distract	-11.5301
▁exclaim	-11.5301
▁convince	-11.5306
▁critic	-11.5322
▁actor	-11.5327
construct	-11.5339
▁intellect	-11.534
▁Diomed	-11.534
▁FROM	-11.534
▁abominable	-11.534
▁antechamber	-11.534
▁arranging	-11.534
▁contribute	-11.534
▁dwelt	-11.534
▁forecastle	-11.534
▁obligation	-11.534
▁opportunities	-11.534
▁perplexity	-11.534
▁pilgrim	-11.534
▁precipice	-11.534
▁regulation	-11.534
▁scruple	-11.534
▁wrought	-11.534
▁Hunter	-11.534
▁avenue	-11.534
▁easier	-11.534
▁indistinct	-11.534
▁remedy	-11.534
▁seventeen	-11.534
▁bliss	-11.534
▁casual	-11.534
▁conceit	-11.534
▁crash	-11.534
▁flicker	-11.534
▁relax	-11.534
▁scandal	-11.534
▁adapt	-11.534
▁behalf	-11.534
▁device	-11.534
▁lungs	-11.534
▁Magn	-11.534
enforce	-11.534
!_”	-11.534
▁Christmas	-11.5341
▁idol	-11.5341
▁sobbing	-11.5341
Keep	-11.5341
▁fulfill	-11.5341
ipping	-11.5343
▁split	-11.5343
▁legend	-11.5345
▁Justine	-11.5348
▁ejaculated	-11.5349
▁indicati	-11.5355
▁abstraction	-11.5357
▁loath	-11.5359
▁positively	-11.536
▁sincerely	-11.5368
▁overhead	-11.5381
▁sweetness	-11.5389
▁impressed	-11.5389
▁abuse	-11.5391
▁recommended	-11.5394
power	-11.5396
▁painting	-11.5401
***	-11.5408
▁growl	-11.5424
▁501	-11.5438
LY	-11.5469
▁mingle	-11.5523
▁foi	-11.5542
plied	-11.5543
▁concept	-11.555
espite	-11.5554
▁drama	-11.5556
▁Antinous	-11.5557
▁Hippolyte	-11.5557
▁LICENSE	-11.5557
▁November	-11.5557
▁Smollett	-11.5557
▁architect	-11.5557
▁composure	-11.5557
▁conversing	-11.5557
▁escaping	-11.5557
▁experiment	-11.5557
▁gilded	-11.5557
▁incredible	-11.5557
▁leviathan	-11.5557
▁ridicule	-11.5557
▁shawl	-11.5557
▁swore	-11.5557
▁tyranny	-11.5557
FIRST	-11.5557
▁Carconte	-11.5557
▁blossom	-11.5557
▁brigand	-11.5557
▁dishonour	-11.5557
▁indefinite	-11.5557
▁patrol	-11.5557
▁revolve	-11.5557
▁sepulchre	-11.5557
▁merrily	-11.5557
▁nobility	-11.5557
▁intrigue	-11.5557
▁strew	-11.5557
▁version	-11.5558
▁Rosings	-11.5558
▁liability	-11.5558
▁soothe	-11.5558
▁fortress	-11.5558
▁kid	-11.5558
▁apron	-11.5558
▁seemingly	-11.5559
▁internal	-11.5559
▁heaved	-11.556
▁confirmation	-11.556
▁acute	-11.5562
▁notwithstanding	-11.5562
▁passport	-11.5563
pass	-11.5563
▁Corsican	-11.5564
▁purity	-11.5565
▁matchless	-11.5568
▁Comte	-11.5574
▁policeman	-11.5575
▁prominently	-11.5575
▁exertion	-11.5575
▁firmness	-11.5582
▁miller	-11.5583
Rose	-11.5583
▁reappeared	-11.5591
▁stun	-11.5595
ATH	-11.5602
▁mansion	-11.5604
▁ironical	-11.5608
firm	-11.5615
Dólokhov	-11.5617
Moscow	-11.5617
would	-11.5618
▁thoughtfully	-11.5629
Off	-11.5629
--“	-11.563
▁whit	-11.5643
▁Shu	-11.5667
▁farmer	-11.567
EAR	-11.5683
Mary	-11.5686
▁pinch	-11.57
▁surviv	-11.5707
Seven	-11.5711
▁incessant	-11.5757
▁blank	-11.5777
Boulatruelle	-11.578
proprietary	-11.578
▁Boguchárovo	-11.578
▁President	-11.578
▁Renfield	-11.578
▁accurate	-11.578
▁adversary	-11.578
▁challenge	-11.578
▁cluster	-11.578
▁cravat	-11.578
▁emptied	-11.578
▁enterprise	-11.578
▁eternity	-11.578
▁luminous	-11.578
▁perception	-11.578
▁population	-11.578
▁proclaim	-11.578
▁splendor	-11.578
▁striving	-11.578
▁ultimate	-11.578
▁vapour	-11.578
▁vulture	-11.578
According	-11.578
▁Victor	-11.578
▁choked	-11.578
▁decay	-11.578
▁hush	-11.578
▁tactics	-11.578
▁Argos	-11.578
▁desolate	-11.578
▁gaily	-11.578
▁huntsmen	-11.578
▁muscle	-11.578
▁nourish	-11.578
NESS	-11.578
▁debate	-11.578
▁Gunn	-11.578
▁dissatisfied	-11.578
▁sparrow	-11.578
Hush	-11.5782
▁strides	-11.5783
▁spoon	-11.5784
▁200	-11.5785
▁attachment	-11.5785
▁attire	-11.5786
▁development	-11.5788
▁redoubled	-11.5789
ASC	-11.579
▁mice	-11.5792
▁Wang	-11.5795
ontact	-11.5797
▁Homeric	-11.5799
▁dragon	-11.5801
▁galley	-11.5802
▁assigned	-11.5808
▁MAN	-11.5809
▁occasional	-11.581
▁constituted	-11.5812
▁PG	-11.5812
▁resolutely	-11.5814
▁Dron	-11.582
Behold	-11.5828
INE	-11.5831
▁wire	-11.5842
Neither	-11.5843
Heaven	-11.5844
Louis	-11.5844
Mother	-11.5844
horse	-11.5845
Old	-11.5845
▁rend	-11.5849
donate	-11.5851
▁sale	-11.5878
▁Lin	-11.5895
▁wig	-11.5919
TRA	-11.5936
▁entr	-11.596
▁boil	-11.5967
▁inhabit	-11.5968
▁communicate	-11.5972
▁relieve	-11.5972
▁pronounce	-11.5972
▁America	-11.5997
▁complex	-11.6003
▁WARRANT	-11.6006
ABILITY	-11.6007
Defect	-11.6007
▁DISTRIBUT	-11.6007
▁Pfuel	-11.6007
▁Redistributi	-11.6007
▁benevolent	-11.6007
▁colossal	-11.6007
▁occurrence	-11.6007
▁responsibility	-11.6007
▁scrutinize	-11.6007
▁staggered	-11.6007
▁tattered	-11.6007
▁virtuous	-11.6007
Adieu	-11.6007
▁Westenra	-11.6007
▁continuous	-11.6007
▁dispatch	-11.6007
▁harbor	-11.6007
▁idiot	-11.6007
▁strive	-11.6007
▁yacht	-11.6007
▁Circe	-11.6007
▁confidential	-11.6007
▁fishermen	-11.6007
▁rubbing	-11.6007
▁pledge	-11.6007
▁inserted	-11.6007
▁Jesus	-11.6007
▁hired	-11.6007
▁exterminat	-11.6007
▁isolated	-11.6007
▁extinct	-11.6007
▁WARRANTY	-11.6007
▁Master	-11.6008
▁sugar	-11.6008
▁piteous	-11.6008
▁drone	-11.6009
▁Elba	-11.6009
▁headquarters	-11.601
▁disappearance	-11.601
▁incur	-11.6011
▁Jack	-11.6011
▁lamb	-11.6011
▁electronically	-11.6016
▁tries	-11.6022
▁department	-11.6024
Pardon	-11.6026
▁suggestion	-11.6031
▁Pass	-11.6033
▁beforehand	-11.6035
▁rider	-11.6044
▁distracted	-11.6049
▁overboard	-11.605
▁whaleman	-11.6057
▁wag	-11.6058
Three	-11.6076
Telemachus	-11.6077
water	-11.6077
During	-11.6083
fish	-11.6105
plan	-11.6123
pac	-11.6136
Soon	-11.6145
▁deposit	-11.6151
▁woo	-11.6172
▁marsh	-11.6224
▁teacher	-11.6239
Arakchéev	-11.624
appropriate	-11.624
▁Africa	-11.624
▁Chanvrerie	-11.624
▁Jacopo	-11.624
▁Monkeys	-11.624
▁cliff	-11.624
▁delicious	-11.624
▁dynasty	-11.624
▁haggard	-11.624
▁mattress	-11.624
▁nowadays	-11.624
▁nymph	-11.624
▁petticoat	-11.624
▁plough	-11.624
▁recompense	-11.624
▁rubbish	-11.624
▁stump	-11.624
▁vapor	-11.624
▁vigil	-11.624
▁worry	-11.624
▁Friar	-11.624
▁network	-11.624
▁beseech	-11.624
▁overheard	-11.624
▁undertaking	-11.624
▁basin	-11.624
▁diffus	-11.624
ography	-11.624
▁scorch	-11.624
▁rapture	-11.624
▁blackened	-11.624
▁margin	-11.624
▁epic	-11.624
▁criticism	-11.624
were	-11.6241
graph	-11.6242
▁nineteenth	-11.6243
Close	-11.6244
▁Seine	-11.6244
▁Latin	-11.6245
▁advantageous	-11.6251
45	-11.6252
▁massive	-11.6252
▁European	-11.6253
▁interpretation	-11.6254
▁BY	-11.6254
▁highway	-11.6257
▁smashed	-11.6258
▁briskly	-11.6259
▁brat	-11.6261
▁ox	-11.6267
▁politely	-11.6268
▁gentleness	-11.6272
drawn	-11.6311
machine	-11.6315
▁conqueror	-11.6315
perhaps	-11.6315
(	-11.6315
▁swan	-11.6353
hunter	-11.6362
▁100	-11.6394
▁stamp	-11.6429
▁flush	-11.6439
ARD	-11.644
▁constitute	-11.6443
▁hesitate	-11.6443
▁plunge	-11.6443
▁accuse	-11.6443
▁rouse	-11.6445
▁abrupt	-11.6455
▁historic	-11.6455
▁barn	-11.6466
Rep	-11.6468
volution	-11.6473
▁omit	-11.6476
▁cabriolet	-11.6478
▁clump	-11.6478
▁crucifix	-11.6478
▁delirium	-11.6478
▁diligence	-11.6478
▁eccentric	-11.6478
▁feminine	-11.6478
▁geese	-11.6478
▁geometry	-11.6478
▁incomplete	-11.6478
▁judging	-11.6478
▁malice	-11.6478
▁manuscript	-11.6478
▁muttering	-11.6478
▁paternal	-11.6478
▁penetrating	-11.6478
▁prudence	-11.6478
▁resentment	-11.6478
▁schooner	-11.6478
▁solution	-11.6478
▁stupefied	-11.6478
▁temporary	-11.6478
▁trifling	-11.6478
▁vacant	-11.6478
▁Dardan	-11.6478
▁dictate	-11.6478
▁newcomer	-11.6478
▁Diary	-11.6478
▁disconcert	-11.6478
▁bunch	-11.6478
▁pulse	-11.6478
▁caprice	-11.6478
▁drain	-11.6478
▁thankful	-11.6478
machus	-11.6478
▁gush	-11.6478
▁humming	-11.6478
▁woollen	-11.6478
▁filth	-11.6478
▁indirectly	-11.6478
▁tolerable	-11.6478
▁hull	-11.6478
Ray	-11.6478
▁faded	-11.6478
▁1830	-11.6479
▁portress	-11.648
▁blanket	-11.648
▁battlefield	-11.648
▁deprive	-11.6481
▁tutor	-11.6482
▁crop	-11.6482
▁fain	-11.6486
▁revelation	-11.6486
▁majority	-11.6487
▁lick	-11.6487
▁packet	-11.6488
▁Pope	-11.6494
▁quest	-11.6495
▁reform	-11.6495
▁honourable	-11.6498
▁dishes	-11.6499
▁peculiarity	-11.65
▁lair	-11.6505
▁flashes	-11.6508
▁troop	-11.6517
▁lent	-11.6524
▁Lost	-11.6533
Help	-11.6535
break	-11.6552
Valjean	-11.6559
because	-11.6559
Alice	-11.6561
▁ensur	-11.6593
Arm	-11.6618
Corinth	-11.6636
▁leak	-11.6645
▁threaten	-11.6665
▁conclude	-11.6687
▁positive	-11.6699
▁intrepid	-11.6721
▁Rucastle	-11.6722
▁Square	-11.6722
▁clenched	-11.6722
▁desirable	-11.6722
▁everlasting	-11.6722
▁garret	-11.6722
▁identity	-11.6722
▁lunatic	-11.6722
▁promotion	-11.6722
▁proprietor	-11.6722
▁refusing	-11.6722
▁rigging	-11.6722
▁scholar	-11.6722
▁smuggler	-11.6722
▁subordinate	-11.6722
▁sullen	-11.6722
▁vicomte	-11.6722
▁welfare	-11.6722
▁whiskers	-11.6722
▁bonnet	-11.6722
▁descried	-11.6722
▁hesitating	-11.6722
▁mysteries	-11.6722
▁reckless	-11.6722
▁superintend	-11.6722
▁Naples	-11.6722
▁Ocean	-11.6722
▁Toulon	-11.6722
▁Polish	-11.6722
▁inference	-11.6722
▁recess	-11.6722
▁pump	-11.6722
▁supposition	-11.6722
▁monkey	-11.6722
▁bidding	-11.6722
▁loom	-11.6722
▁sauce	-11.6722
Forgive	-11.6723
▁Angel	-11.6723
▁section	-11.6723
▁latitude	-11.6723
▁Ladyship	-11.6724
▁beauties	-11.6724
▁(“	-11.6724
loading	-11.6725
▁errand	-11.6727
▁tame	-11.6727
▁royalty	-11.6728
▁Hansel	-11.673
▁cycl	-11.6731
▁China	-11.6733
▁hive	-11.6734
▁deuce	-11.6734
▁startling	-11.6734
▁convulsively	-11.6735
▁remainder	-11.6735
▁housekeeper	-11.674
▁historian	-11.6766
cited	-11.677
keep	-11.6776
▁80	-11.6799
wheel	-11.6808
Fauchelevent	-11.6809
from	-11.6809
good	-11.6818
▁renounce	-11.6821
sheet	-11.6828
back	-11.6841
12	-11.6845
▁taper	-11.6855
aging	-11.6881
Jo	-11.6885
tino	-11.6931
▁reappear	-11.6932
▁compel	-11.694
train	-11.6942
▁adore	-11.6947
▁affi	-11.696
----"	-11.6972
Steelkilt	-11.6972
herkóv	-11.6972
rchbishop	-11.6972
▁Dormouse	-11.6972
▁Euryclea	-11.6972
▁Journal	-11.6972
▁Montague	-11.6972
▁Oriental	-11.6972
▁Pelides	-11.6972
▁Wizard	-11.6972
▁august	-11.6972
▁corporal	-11.6972
▁evince	-11.6972
▁holiday	-11.6972
▁malicious	-11.6972
▁rampart	-11.6972
▁responsible	-11.6972
▁syllable	-11.6972
▁thrill	-11.6972
▁undoubtedly	-11.6972
▁Virgin	-11.6972
▁abhor	-11.6972
▁bridegroom	-11.6972
▁dishonor	-11.6972
▁ethereal	-11.6972
▁insolence	-11.6972
▁insolent	-11.6972
▁negro	-11.6972
▁photograph	-11.6972
▁populace	-11.6972
▁republic	-11.6972
Sleep	-11.6972
▁HAV	-11.6972
▁intolerable	-11.6972
▁phase	-11.6972
▁profile	-11.6972
▁warfare	-11.6972
▁stalk	-11.6972
▁aperture	-11.6972
▁northern	-11.6972
▁wield	-11.6972
▁muddy	-11.6972
▁nodding	-11.6972
▁engine	-11.6972
▁picturesque	-11.6972
▁visage	-11.6972
▁forbear	-11.6972
▁crystal	-11.6972
▁XIX	-11.6972
▁writh	-11.6973
▁wiping	-11.6973
▁linked	-11.6973
▁pitied	-11.6973
Consider	-11.6973
▁commencement	-11.6975
▁60	-11.6975
▁cruelty	-11.6976
▁kneeling	-11.6979
▁repast	-11.698
stride	-11.6983
▁scamp	-11.6983
▁shan	-11.6984
▁Mayor	-11.6989
▁overcoat	-11.6992
cogn	-11.7
50,000	-11.7005
▁tossing	-11.7008
Martin	-11.7016
kill	-11.7055
Archive	-11.7065
step	-11.7067
Haste	-11.7111
▁sheath	-11.7121
Fire	-11.7132
▁revere	-11.7132
Must	-11.7166
▁acquire	-11.7193
▁associate	-11.7193
Letter	-11.7195
▁expose	-11.7197
▁mechanical	-11.7205
▁Honor	-11.7225
▁senior	-11.7228
Sinbad	-11.7228
▁Bourgh	-11.7228
▁Favourite	-11.7228
▁Whitby	-11.7228
▁accursed	-11.7228
▁ambitious	-11.7228
▁calèche	-11.7228
▁caution	-11.7228
▁clumsy	-11.7228
▁crazy	-11.7228
▁eloquence	-11.7228
▁eloquent	-11.7228
▁facility	-11.7228
▁gliding	-11.7228
▁indispensable	-11.7228
▁inevitably	-11.7228
▁invariably	-11.7228
▁involuntary	-11.7228
▁moustache	-11.7228
▁perceptible	-11.7228
▁phenomenon	-11.7228
▁serenity	-11.7228
▁specimen	-11.7228
▁Laigle	-11.7228
▁chicken	-11.7228
▁committee	-11.7228
▁brink	-11.7228
▁suburb	-11.7228
▁whim	-11.7228
Probably	-11.7228
▁passenger	-11.7228
▁Monday	-11.7228
▁courtesy	-11.7228
▁stray	-11.7228
▁menacing	-11.7228
▁behaved	-11.7229
▁liable	-11.7229
▁representative	-11.7229
▁slipping	-11.7229
▁vicious	-11.7229
▁truce	-11.7229
▁genial	-11.7229
▁Yao	-11.723
ITY	-11.723
▁Forster	-11.723
evenue	-11.7231
▁sparkled	-11.7231
▁random	-11.7232
▁utterance	-11.7235
▁ballroom	-11.7236
▁curé	-11.7237
▁nightfall	-11.7237
▁hateful	-11.7252
▁Plan	-11.7253
▁trim	-11.7253
▁menace	-11.7262
▁bled	-11.7272
Pol	-11.7275
▁sap	-11.7291
arried	-11.7292
▁vote	-11.7302
▁signify	-11.7327
VER	-11.7327
Nevertheless	-11.7328
Maximilian	-11.7328
Emperor	-11.7329
foot	-11.7329
court	-11.7332
High	-11.7332
▁shameful	-11.738
▁Anti	-11.7391
▁rod	-11.7441
▁execute	-11.7457
▁precede	-11.7457
shore	-11.7462
▁Sparta	-11.7481
▁Austria	-11.7481
▁product	-11.7484
▁XXX	-11.7485
Precisely	-11.7491
Twenty	-11.7491
▁Ilyín	-11.7491
▁McCarthy	-11.7491
▁Palace	-11.7491
▁afresh	-11.7491
▁condescend	-11.7491
▁consternation	-11.7491
▁continuing	-11.7491
▁entrusted	-11.7491
▁equivalent	-11.7491
▁exaggerate	-11.7491
▁inconvenience	-11.7491
▁ineffable	-11.7491
▁intimacy	-11.7491
▁knelt	-11.7491
▁mathematical	-11.7491
▁nocturnal	-11.7491
▁obedient	-11.7491
▁promising	-11.7491
▁rapturous	-11.7491
▁rejoicing	-11.7491
▁shrink	-11.7491
▁telegram	-11.7491
▁terrific	-11.7491
▁vigour	-11.7491
▁voluptuous	-11.7491
▁Golden	-11.7491
▁bankrupt	-11.7491
▁carbine	-11.7491
▁Athenian	-11.7491
▁gayety	-11.7491
▁surmise	-11.7491
▁transition	-11.7491
▁baker	-11.7491
▁convoy	-11.7491
▁shalt	-11.7491
Believe	-11.7491
▁reaction	-11.7491
▁mound	-11.7491
▁infect	-11.7491
▁proving	-11.7491
▁rifle	-11.7491
▁bribe	-11.7492
▁olive	-11.7492
▁Lavr	-11.7492
▁tact	-11.7494
▁trail	-11.7494
▁afar	-11.7494
▁data	-11.7495
▁management	-11.7499
▁regretted	-11.75
▁curled	-11.75
▁barred	-11.75
▁foreseen	-11.7501
▁realities	-11.7503
▁swiftness	-11.7511
▁Beau	-11.7513
▁assertion	-11.7516
Everybody	-11.752
Lie	-11.7556
▁Park	-11.7565
Little	-11.7598
text	-11.7599
courage	-11.76
coach	-11.7622
▁hind	-11.7707
▁pierce	-11.7727
▁buckle	-11.7747
▁foresee	-11.7752
extinguish	-11.7761
▁Freemason	-11.7761
December	-11.7761
Evidently	-11.7761
Homme	-11.7761
punctual	-11.7761
▁Carnival	-11.7761
▁Joseph	-11.7761
▁ambassador	-11.7761
▁asylum	-11.7761
▁blubber	-11.7761
▁crooked	-11.7761
▁excavat	-11.7761
▁exploit	-11.7761
▁felicity	-11.7761
▁hammock	-11.7761
▁identify	-11.7761
▁illustration	-11.7761
▁infamous	-11.7761
▁intoxicated	-11.7761
▁negative	-11.7761
▁precision	-11.7761
▁proclamation	-11.7761
▁repulse	-11.7761
▁salvation	-11.7761
▁satisfactory	-11.7761
▁secrecy	-11.7761
▁treachery	-11.7761
▁uplifted	-11.7761
▁vegetable	-11.7761
▁violet	-11.7761
▁chemist	-11.7761
▁interposed	-11.7761
▁ancestor	-11.7761
▁cardinal	-11.7761
▁compressed	-11.7761
▁modified	-11.7761
▁stool	-11.7761
▁1832	-11.7761
▁unheard	-11.7761
▁Armé	-11.7761
▁usurper	-11.7761
▁wrench	-11.7761
▁birch	-11.7761
▁gnaw	-11.7761
▁southern	-11.7761
▁artisan	-11.7761
▁squall	-11.7761
▁spindle	-11.7762
▁partition	-11.7762
▁END	-11.7762
Second	-11.7762
▁ruling	-11.7762
Finally	-11.7762
▁noisy	-11.7762
▁alluded	-11.7762
▁organized	-11.7762
▁earliest	-11.7762
▁fiction	-11.7762
▁WILL	-11.7763
▁ragged	-11.7763
▁stockade	-11.7764
▁gust	-11.7765
History	-11.7765
▁considerably	-11.7768
▁orange	-11.7772
▁slay	-11.7774
▁Instead	-11.7774
▁morality	-11.7775
▁attraction	-11.7789
WHA	-11.7813
entered	-11.7816
Hallo	-11.7822
ALL	-11.7846
Suddenly	-11.7876
Gavroche	-11.7876
Noirtier	-11.7876
Caderousse	-11.7876
Both	-11.7876
chamber	-11.7877
called	-11.788
Russian	-11.788
▁smit	-11.7882
ABLE	-11.7948
Ssu	-11.7967
▁stat	-11.7979
▁caus	-11.7994
▁rustle	-11.8
▁release	-11.8005
▁prominent	-11.8016
▁brisk	-11.8016
▁thorough	-11.8016
▁snap	-11.8039
Buonaparte	-11.8039
▁Pacific	-11.8039
▁Renée	-11.8039
▁approval	-11.8039
▁batteries	-11.8039
▁crouching	-11.8039
▁cushion	-11.8039
▁definition	-11.8039
▁disposal	-11.8039
▁distorted	-11.8039
▁doctrine	-11.8039
▁embark	-11.8039
▁emerging	-11.8039
▁enquiry	-11.8039
▁flukes	-11.8039
▁frozen	-11.8039
▁impossibility	-11.8039
▁indebted	-11.8039
▁perpendicular	-11.8039
▁propriety	-11.8039
▁regulate	-11.8039
▁separation	-11.8039
▁sprinkle	-11.8039
▁stubborn	-11.8039
▁suicide	-11.8039
▁superfluous	-11.8039
▁suppliant	-11.8039
▁treacherous	-11.8039
▁consort	-11.8039
▁crisis	-11.8039
▁dismounted	-11.8039
▁persecut	-11.8039
▁tackle	-11.8039
▁central	-11.8039
▁estimate	-11.8039
▁impending	-11.8039
▁chorus	-11.8039
▁repay	-11.8039
▁valour	-11.8039
▁endowed	-11.8039
▁anoint	-11.8039
▁combatants	-11.8039
Dryden	-11.8039
▁efface	-11.8039
▁nuts	-11.804
▁barefoot	-11.804
▁ransom	-11.804
▁supple	-11.804
▁digging	-11.804
Title	-11.8041
▁innkeeper	-11.8041
▁dramatic	-11.8041
▁entail	-11.8041
▁leaf	-11.8042
▁ridden	-11.8042
▁prosperity	-11.8042
▁alien	-11.8042
▁spray	-11.8043
▁eastward	-11.8044
▁reap	-11.8045
▁bigger	-11.8045
Fear	-11.8051
▁hoary	-11.8053
▁cran	-11.8054
▁buckler	-11.8054
▁starry	-11.8056
▁pope	-11.8057
▁professor	-11.806
▁justify	-11.8061
▁Epi	-11.8076
▁steed	-11.812
▁dismiss	-11.8129
bank	-11.8161
Dorothy	-11.8162
giving	-11.8162
penny	-11.8163
know	-11.8164
burn	-11.8166
those	-11.8168
▁64	-11.817
▁suspend	-11.8286
▁traverse	-11.829
▁devote	-11.829
▁oblige	-11.829
▁incline	-11.8291
Certain	-11.8303
▁nineteen	-11.832
▁prior	-11.8324
▁Barrière	-11.8325
▁Boulevard	-11.8325
▁Phrygian	-11.8325
▁Polemarchus	-11.8325
▁Sarpedon	-11.8325
▁Spada	-11.8325
▁Weyrother	-11.8325
▁antiquity	-11.8325
▁arithmetic	-11.8325
▁association	-11.8325
▁bachelor	-11.8325
▁benevolence	-11.8325
▁dignified	-11.8325
▁entitled	-11.8325
▁expedient	-11.8325
▁expiration	-11.8325
▁eyelids	-11.8325
▁happiest	-11.8325
▁horribly	-11.8325
▁hypnoti	-11.8325
▁imitator	-11.8325
▁imperceptible	-11.8325
▁intermediate	-11.8325
▁knapsack	-11.8325
▁lugubrious	-11.8325
▁malady	-11.8325
▁precipitate	-11.8325
▁preoccupied	-11.8325
▁shaggy	-11.8325
▁snake	-11.8325
▁thunderbolt	-11.8325
▁underneath	-11.8325
▁Greenland	-11.8325
▁administer	-11.8325
▁collapse	-11.8325
▁offensive	-11.8325
▁suspense	-11.8325
▁wheat	-11.8325
▁wreath	-11.8325
▁depict	-11.8325
▁mirth	-11.8325
buoy	-11.8325
▁waggon	-11.8325
▁affright	-11.8325
▁Atreus	-11.8325
▁collective	-11.8325
▁pausing	-11.8325
▁chaos	-11.8325
▁loyal	-11.8325
▁calf	-11.8325
▁bump	-11.8325
▁blend	-11.8325
▁grimace	-11.8325
▁uprising	-11.8325
Silence	-11.8325
▁intersect	-11.8325
▁Nearly	-11.8326
▁reverence	-11.8326
▁oracle	-11.8326
▁carcase	-11.8326
▁Arras	-11.8327
▁governess	-11.8327
▁alert	-11.8327
Until	-11.8327
▁Nature	-11.8328
▁Almost	-11.8328
▁trampled	-11.8329
▁troublesome	-11.833
▁correspondent	-11.833
▁perilous	-11.833
▁accessible	-11.833
▁theories	-11.833
▁partake	-11.8331
▁crackling	-11.8331
▁artilleryman	-11.8332
▁quitting	-11.8333
▁resignation	-11.8333
▁consistent	-11.8334
▁abide	-11.8334
▁curling	-11.8336
▁designated	-11.8336
▁gang	-11.834
case	-11.834
ienne	-11.8343
▁outrage	-11.8343
Enough	-11.8344
▁Marshal	-11.8348
▁girdle	-11.8368
▁instruction	-11.8419
Creat	-11.8446
Mercédès	-11.8456
broken	-11.8456
Cristo	-11.8456
witt	-11.8457
▁disdainful	-11.8465
▁400	-11.854
Rap	-11.8557
▁classic	-11.8568
ibi	-11.8582
▁calculate	-11.8584
▁resume	-11.8585
▁compose	-11.8587
▁dispose	-11.859
▁prosper	-11.8616
Cucumetto	-11.8619
Dunyásha	-11.8619
Exeunt	-11.8619
MARIUS	-11.8619
▁Dessalles	-11.8619
▁Hercules	-11.8619
▁Idomeneus	-11.8619
▁Society	-11.8619
▁admirably	-11.8619
▁athwart	-11.8619
▁cathedral	-11.8619
▁clamour	-11.8619
▁commercial	-11.8619
▁conscientious	-11.8619
▁culprit	-11.8619
▁exclusion	-11.8619
▁explore	-11.8619
▁grandpapa	-11.8619
▁incredulous	-11.8619
▁interrogate	-11.8619
▁miraculous	-11.8619
▁outstretched	-11.8619
▁persuasion	-11.8619
▁rabbit	-11.8619
▁soothing	-11.8619
▁supernatural	-11.8619
▁tidings	-11.8619
▁tyrannical	-11.8619
▁unprotected	-11.8619
▁vengeful	-11.8619
▁worried	-11.8619
▁Serene	-11.8619
▁burial	-11.8619
▁enclosed	-11.8619
▁intensity	-11.8619
▁smote	-11.8619
▁subdued	-11.8619
▁Legion	-11.8619
▁pillar	-11.8619
▁basis	-11.8619
▁discord	-11.8619
▁assuming	-11.8619
OLD	-11.8619
▁lingered	-11.8619
▁brightened	-11.8619
▁goblet	-11.8619
▁Saturn	-11.862
▁tendency	-11.862
▁vase	-11.862
▁Mount	-11.8621
▁transfer	-11.8621
▁indulgence	-11.8621
▁sworn	-11.8621
▁beef	-11.8622
▁spacious	-11.8622
▁peal	-11.8622
▁gaunt	-11.8623
▁laborious	-11.8623
▁remarkably	-11.8624
▁revolutionary	-11.8625
▁rustic	-11.8626
▁Road	-11.8629
▁adieu	-11.863
▁favorable	-11.863
▁vous	-11.8632
▁dint	-11.8644
▁dye	-11.8656
▁wool	-11.8686
Hark	-11.8688
▁stab	-11.8689
Egyptian	-11.8698
luding	-11.8707
▁volunteer	-11.8716
▁congratulat	-11.875
Mamma	-11.8759
Iliad	-11.8759
General	-11.8759
Chang	-11.8765
▁aspire	-11.8795
▁democratic	-11.8813
fell	-11.8814
▁irritat	-11.8883
▁assign	-11.8892
athed	-11.8914
apple	-11.8915
FOUR	-11.8922
Immediately	-11.8922
Pythagorean	-11.8922
▁Dracula	-11.8922
▁Ivánovich	-11.8922
▁Lestrade	-11.8922
▁Munchkin	-11.8922
▁Otrádnoe	-11.8922
▁SAILOR	-11.8922
▁Snowdrop	-11.8922
▁crutch	-11.8922
▁disciple	-11.8922
▁dripping	-11.8922
▁earthquake	-11.8922
▁entangled	-11.8922
▁envious	-11.8922
▁gunwale	-11.8922
▁horrified	-11.8922
▁identical	-11.8922
▁intercourse	-11.8922
▁paradox	-11.8922
▁pitiless	-11.8922
▁policy	-11.8922
▁producing	-11.8922
▁repulsive	-11.8922
▁scientific	-11.8922
▁uneasily	-11.8922
▁cuirassiers	-11.8922
▁literally	-11.8922
▁literary	-11.8922
▁metallic	-11.8922
▁shipwreck	-11.8922
▁translated	-11.8922
▁parlor	-11.8922
▁commend	-11.8922
▁western	-11.8922
Follow	-11.8922
▁apology	-11.8922
▁straightened	-11.8922
▁tribe	-11.8922
▁sabre	-11.8922
▁paved	-11.8922
Twice	-11.8922
▁demonstrat	-11.8922
▁Time	-11.8922
▁horizontal	-11.8922
▁composition	-11.8923
▁James	-11.8923
▁recurred	-11.8923
▁flapp	-11.8923
▁Boville	-11.8923
▁riddle	-11.8924
▁tripod	-11.8924
▁Platonic	-11.8924
▁inheritance	-11.8924
▁tapped	-11.8925
▁omitted	-11.8925
▁barren	-11.8925
Deep	-11.8925
▁excel	-11.8927
▁northward	-11.8927
▁blacksmith	-11.8927
▁clash	-11.8927
▁Gray	-11.8928
▁announcement	-11.8928
▁peculiarities	-11.893
▁legislator	-11.8931
▁parish	-11.8932
▁attendance	-11.8932
settling	-11.8932
▁slacken	-11.8937
▁preside	-11.8938
52	-11.894
▁pear	-11.8963
ancing	-11.8966
Kill	-11.8967
Fast	-11.9065
pital	-11.9068
direct	-11.9071
Sometimes	-11.9071
satisfaction	-11.9072
Jove	-11.9076
53	-11.9079
Bring	-11.9112
▁connect	-11.9185
Exc	-11.9187
▁prolong	-11.9198
▁extra	-11.9202
Draw	-11.9214
bearer	-11.9229
Fortunately	-11.9234
▁Daggoo	-11.9234
▁abundance	-11.9234
▁apprehend	-11.9234
▁bouquet	-11.9234
▁brazier	-11.9234
▁cannibal	-11.9234
▁captivity	-11.9234
▁choking	-11.9234
▁conspicuous	-11.9234
▁crouched	-11.9234
▁deception	-11.9234
▁disinterested	-11.9234
▁dissolve	-11.9234
▁elegance	-11.9234
▁elevation	-11.9234
▁enjoin	-11.9234
▁exciting	-11.9234
▁fragrant	-11.9234
▁granite	-11.9234
▁imaginary	-11.9234
▁industry	-11.9234
▁inscription	-11.9234
▁intelligible	-11.9234
▁introducing	-11.9234
▁mathematics	-11.9234
▁metaphor	-11.9234
▁muffled	-11.9234
▁orchestra	-11.9234
▁recruit	-11.9234
▁requisite	-11.9234
▁revolving	-11.9234
▁sensitive	-11.9234
▁shabby	-11.9234
▁surgeon	-11.9234
▁unfamiliar	-11.9234
▁unhappiness	-11.9234
▁urchin	-11.9234
Germain	-11.9234
▁companies	-11.9234
▁enraged	-11.9234
▁intercept	-11.9234
▁streak	-11.9234
▁Chamber	-11.9235
▁imperious	-11.9235
▁leeward	-11.9235
▁miseries	-11.9235
xii	-11.9235
Exit	-11.9235
▁Hurst	-11.9235
▁bustle	-11.9235
▁infamy	-11.9235
Farewell	-11.9235
▁sincerity	-11.9235
▁peck	-11.9235
▁incense	-11.9235
▁schoolmaster	-11.9235
▁interference	-11.9236
▁forsake	-11.9236
▁cheap	-11.9236
▁spinning	-11.9236
▁furrow	-11.9237
THING	-11.9237
▁astern	-11.9237
▁fray	-11.9237
▁turnkey	-11.9238
▁accidentally	-11.9238
▁Winged	-11.9238
▁feign	-11.9238
▁alighted	-11.9239
▁hydra	-11.9239
▁commonplace	-11.9239
▁attractive	-11.9239
▁compact	-11.9239
STER	-11.9241
▁entertainment	-11.9245
▁bale	-11.925
wait	-11.9254
▁diplomatic	-11.927
attorney	-11.9393
word	-11.9401
ILL	-11.9429
▁celebrat	-11.9518
▁puzzle	-11.9522
TRACT	-11.9531
fashioned	-11.9543
Mark	-11.9548
experienc	-11.9556
Mediterranean	-11.9557
Penelon	-11.9557
Telyánin	-11.9557
▁Bourbons	-11.9557
▁Cardinal	-11.9557
▁Cretan	-11.9557
▁Ermólov	-11.9557
▁Heffalump	-11.9557
▁January	-11.9557
▁Mondétour	-11.9557
▁Tuileries	-11.9557
▁Vílna	-11.9557
▁Wilmore	-11.9557
▁accomplice	-11.9557
▁astronomy	-11.9557
▁barbarous	-11.9557
▁commotion	-11.9557
▁conflagration	-11.9557
▁convulsion	-11.9557
▁coronet	-11.9557
▁discretion	-11.9557
▁disquiet	-11.9557
▁economi	-11.9557
▁ecstatic	-11.9557
▁esaul	-11.9557
▁eventually	-11.9557
▁foliage	-11.9557
▁furnace	-11.9557
▁grudge	-11.9557
▁hecatomb	-11.9557
▁inexorable	-11.9557
▁inexplicable	-11.9557
▁insufficient	-11.9557
▁labyrinth	-11.9557
▁languid	-11.9557
▁magnitude	-11.9557
▁manufacture	-11.9557
▁refulgent	-11.9557
▁remnant	-11.9557
▁removing	-11.9557
▁scrutinizing	-11.9557
▁strode	-11.9557
▁substitute	-11.9557
▁territory	-11.9557
▁tilbury	-11.9557
▁trivial	-11.9557
▁unlucky	-11.9557
▁unprecedented	-11.9557
Direct	-11.9557
▁pitiful	-11.9557
▁prescribed	-11.9557
▁Club	-11.9557
▁dreary	-11.9557
▁robust	-11.9557
eminent	-11.9557
▁drench	-11.9557
▁busily	-11.9557
▁disengag	-11.9557
▁squeak	-11.9557
▁sulk	-11.9557
▁treatise	-11.9557
▁enigma	-11.9557
Welcome	-11.9557
Further	-11.9557
▁inviting	-11.9557
▁snort	-11.9558
▁alms	-11.9558
▁banner	-11.9558
▁jack	-11.9558
▁forgetfulness	-11.9559
▁gasping	-11.9559
▁clamor	-11.9559
▁RIGHT	-11.9559
Round	-11.9559
▁stripped	-11.9559
Sophist	-11.9559
▁winning	-11.956
Grote	-11.956
▁clang	-11.956
▁plateau	-11.956
▁Strange	-11.9562
Green	-11.9563
▁parson	-11.9563
▁accomplishment	-11.9575
▁Trap	-11.9675
opping	-11.9682
profit	-11.9727
knife	-11.9727
Arist	-11.9765
▁morn	-11.9851
▁illuminat	-11.9852
▁define	-11.9856
▁arouse	-11.9859
▁villa	-11.9884
hound	-11.989
Timókhin	-11.989
preservation	-11.989
▁Bastille	-11.989
▁Prouvaire	-11.989
▁READ	-11.989
▁blunt	-11.989
▁buccaneer	-11.989
▁censure	-11.989
▁colleague	-11.989
▁compromise	-11.989
▁engrossed	-11.989
▁episode	-11.989
▁falchion	-11.989
▁faubourg	-11.989
▁imagining	-11.989
▁impenetrable	-11.989
▁inflame	-11.989
▁legitimate	-11.989
▁magnificence	-11.989
▁outburst	-11.989
▁pavilion	-11.989
▁petrified	-11.989
▁prohibition	-11.989
▁ruddy	-11.989
▁transparent	-11.989
▁vagabond	-11.989
▁vampire	-11.989
▁yawning	-11.989
Unhapp	-11.989
Whither	-11.989
▁Café	-11.989
▁reinforce	-11.989
▁riveted	-11.989
▁ungrateful	-11.989
▁glaring	-11.989
▁invasion	-11.989
▁martyr	-11.989
▁Morgan	-11.989
▁chisel	-11.989
▁joking	-11.989
▁postilion	-11.989
▁posterity	-11.989
▁strap	-11.989
▁Woe	-11.989
▁wrest	-11.9891
▁sceptic	-11.9891
▁snug	-11.9891
▁consign	-11.9891
▁pathetic	-11.9891
▁blond	-11.9891
▁tedious	-11.9891
▁UNDER	-11.9891
▁Turkey	-11.9891
▁heiress	-11.9891
▁sneer	-11.9891
▁jolt	-11.9891
▁snapped	-11.9891
▁scann	-11.9891
▁1805	-11.9892
▁despot	-11.9893
▁Turkish	-11.9893
▁Horn	-11.9893
▁Ilyá	-11.9894
▁revert	-11.9895
▁naught	-11.9895
▁rustling	-11.9895
▁declaration	-11.9895
▁heifer	-11.9898
▁clappe	-11.9978
PARA	-12.0002
▁stair	-12.003
Christ	-12.0072
Fantine	-12.0072
Borís	-12.0072
important	-12.0073
Holmes	-12.0073
whether	-12.0073
▁Egypt	-12.0144
Stern	-12.0159
▁disclaim	-12.0174
▁revel	-12.0229
▁peas	-12.0235
Colosseum	-12.0235
Frankenstein	-12.0235
SECOND	-12.0235
▁Chanticleer	-12.0235
▁Gervais	-12.0235
▁Pávlograd	-12.0235
▁Samsa	-12.0235
▁Shinshín	-12.0235
▁Uhlans	-12.0235
▁Winkies	-12.0235
▁admiring	-12.0235
▁advertisement	-12.0235
▁analogy	-12.0235
▁anticipation	-12.0235
▁appalling	-12.0235
▁applause	-12.0235
▁chemise	-12.0235
▁circular	-12.0235
▁clergy	-12.0235
▁cobbler	-12.0235
▁contributions	-12.0235
▁cruising	-12.0235
▁deliberation	-12.0235
▁diligent	-12.0235
▁eclipse	-12.0235
▁explosion	-12.0235
▁financial	-12.0235
▁grenadier	-12.0235
▁independence	-12.0235
▁loophole	-12.0235
▁parlour	-12.0235
▁phenomena	-12.0235
▁primitive	-12.0235
▁ravine	-12.0235
▁ravish	-12.0235
▁regulating	-12.0235
▁shrub	-12.0235
▁superstitious	-12.0235
▁terrestrial	-12.0235
▁Caterpillar	-12.0235
▁Frank	-12.0235
▁astound	-12.0235
▁disadvantage	-12.0235
▁discontent	-12.0235
▁dissipate	-12.0235
▁glimmer	-12.0235
▁oblivio	-12.0235
▁BUT	-12.0235
▁culture	-12.0235
▁depression	-12.0235
▁envoy	-12.0235
▁fraud	-12.0235
▁infernal	-12.0235
▁insect	-12.0235
▁pondered	-12.0235
▁Austen	-12.0235
▁piano	-12.0235
▁enquire	-12.0235
▁lazy	-12.0235
▁Diana	-12.0235
▁deduce	-12.0235
▁spouse	-12.0235
▁garage	-12.0235
▁Clearly	-12.0236
▁Dante	-12.0236
Either	-12.0236
▁coincidence	-12.0236
Denis	-12.0236
CHANT	-12.0236
▁transcrib	-12.0236
▁inscribed	-12.0236
▁millionaire	-12.0236
▁medical	-12.0236
shaven	-12.0237
▁Fille	-12.0237
▁lull	-12.0237
▁nook	-12.0237
▁Clair	-12.0237
▁urgent	-12.0237
Selim	-12.0238
▁Mouse	-12.0238
Safe	-12.0238
▁tough	-12.0244
IDE	-12.0256
55	-12.0349
solicited	-12.04
mination	-12.042
Courfeyrac	-12.0429
Fernand	-12.0429
general	-12.043
Whale	-12.043
France	-12.043
grown	-12.0433
TIONS	-12.0459
rending	-12.0499
ordered	-12.0533
▁impose	-12.0558
LAI	-12.0575
Doubtless	-12.0592
Inspector	-12.0592
PLACE	-12.0592
VOLU	-12.0592
sensibly	-12.0592
▁Imperial	-12.0592
▁Scamander	-12.0592
▁accuracy	-12.0592
▁assailants	-12.0592
▁authentic	-12.0592
▁bivouac	-12.0592
▁breeches	-12.0592
▁circuit	-12.0592
▁circum	-12.0592
▁dividing	-12.0592
▁edifice	-12.0592
▁epithet	-12.0592
▁extricate	-12.0592
▁ignoble	-12.0592
▁inaccurate	-12.0592
▁mademoiselle	-12.0592
▁maternal	-12.0592
▁obsolete	-12.0592
▁pyramid	-12.0592
▁repetition	-12.0592
▁straggl	-12.0592
▁surmounted	-12.0592
▁swollen	-12.0592
▁twinkling	-12.0592
substantial	-12.0592
▁Assizes	-12.0592
▁Myriel	-12.0592
▁Scotland	-12.0592
▁college	-12.0592
▁damask	-12.0592
▁decorated	-12.0592
▁disobey	-12.0592
▁hymn	-12.0592
▁modification	-12.0592
▁penalty	-12.0592
▁sympathetic	-12.0592
▁unaware	-12.0592
PRESS	-12.0592
▁Friday	-12.0592
▁Light	-12.0592
▁Thames	-12.0592
▁click	-12.0592
▁courier	-12.0592
▁gaiety	-12.0592
▁infallible	-12.0592
TTLE	-12.0592
▁Crete	-12.0592
▁plait	-12.0592
▁pebble	-12.0592
▁lump	-12.0592
▁infancy	-12.0592
▁enrich	-12.0592
▁snuffbox	-12.0593
▁histories	-12.0593
Clear	-12.0593
▁EXCE	-12.0593
▁promote	-12.0593
▁shelf	-12.0593
legged	-12.0593
Scene	-12.0593
Robert	-12.0593
▁proposition	-12.0594
▁respite	-12.0594
▁referring	-12.0594
▁diplomatist	-12.0595
Truly	-12.0598
▁lounge	-12.0599
▁slim	-12.06
franc	-12.06
Return	-12.0646
REME	-12.0683
183	-12.0754
▁01	-12.0793
respect	-12.0799
should	-12.08
green	-12.08
walk	-12.0802
215	-12.0871
Boy	-12.0912
▁injure	-12.0929
▁Corsica	-12.0952
▁Wood	-12.0961
▁recur	-12.0962
elease	-12.0962
▁hackney	-12.0963
Antilochus	-12.0963
Calvaire	-12.0963
Platón	-12.0963
SCENE	-12.0963
accommod	-12.0963
▁EVEN	-12.0963
▁Krémlin	-12.0963
▁Shevárdino	-12.0963
▁Thursday	-12.0963
▁ambrosia	-12.0963
▁aristocratic	-12.0963
▁brigade	-12.0963
▁circling	-12.0963
▁contemporary	-12.0963
▁demolish	-12.0963
▁doubloon	-12.0963
▁enslave	-12.0963
▁exclude	-12.0963
▁forfeit	-12.0963
▁fumble	-12.0963
▁implacable	-12.0963
▁magnet	-12.0963
▁neutral	-12.0963
▁nuptial	-12.0963
▁relapse	-12.0963
▁steadfast	-12.0963
▁synonymous	-12.0963
▁tumbling	-12.0963
▁widespread	-12.0963
Blachevelle	-12.0963
▁Fedallah	-12.0963
▁Gabriel	-12.0963
▁INDI	-12.0963
▁Simplice	-12.0963
▁abundant	-12.0963
▁amazing	-12.0963
▁ammunition	-12.0963
▁analysis	-12.0963
▁barbarians	-12.0963
▁exclusive	-12.0963
▁expanse	-12.0963
▁guillotine	-12.0963
▁luxurious	-12.0963
▁monotonous	-12.0963
▁oblique	-12.0963
▁physiognomy	-12.0963
▁recognition	-12.0963
▁stratagem	-12.0963
▁succour	-12.0963
▁telescope	-12.0963
▁vestibule	-12.0963
▁violin	-12.0963
▁concert	-12.0963
▁muzzle	-12.0963
▁shady	-12.0963
▁siege	-12.0963
▁speck	-12.0963
▁Opera	-12.0963
▁Castle	-12.0963
▁parcel	-12.0963
▁dejected	-12.0963
▁dispense	-12.0963
▁socket	-12.0963
▁bridle	-12.0963
▁plaintive	-12.0963
▁reddish	-12.0963
sanguine	-12.0963
▁orchard	-12.0963
guinea	-12.0963
Yesterday	-12.0963
▁chaste	-12.0963
▁courtiers	-12.0963
▁Hellas	-12.0963
▁Water	-12.0963
▁darkened	-12.0963
fraction	-12.0963
▁Athens	-12.0963
▁ascribed	-12.0964
▁thorn	-12.0965
resuming	-12.0965
▁oats	-12.0965
XXVII	-12.0966
▁berth	-12.0967
▁wedge	-12.0969
Content	-12.0973
▁cheat	-12.1008
51	-12.1023
▁2001	-12.1049
Ship	-12.1085
AIR	-12.109
servant	-12.1177
Several	-12.1184
Silver	-12.1185
Pétya	-12.1185
Gregor	-12.1185
first	-12.1185
offering	-12.1185
spirited	-12.126
AGE	-12.1317
Dame	-12.1328
prung	-12.1344
▁disagree	-12.1345
▁unconquer	-12.1347
Feuilly	-12.1347
Gerásim	-12.1347
Language	-12.1347
POSE	-12.1347
Stretch	-12.1347
▁Agatha	-12.1347
▁Atlantic	-12.1347
▁Beausset	-12.1347
▁FOUNDATION	-12.1347
▁Francis	-12.1347
▁Glaucus	-12.1347
▁Ilágin	-12.1347
▁Lawrence	-12.1347
▁Leghorn	-12.1347
▁Mississippi	-12.1347
▁Polydamas	-12.1347
▁Switzerland	-12.1347
▁WORK	-12.1347
▁acquiesce	-12.1347
▁adequate	-12.1347
▁appellation	-12.1347
▁auxiliar	-12.1347
▁avenging	-12.1347
▁chambre	-12.1347
▁crevice	-12.1347
▁elaborate	-12.1347
▁frenzy	-12.1347
▁garrison	-12.1347
▁heavier	-12.1347
▁hospitable	-12.1347
▁illumined	-12.1347
▁illustrate	-12.1347
▁inasmuch	-12.1347
▁injunction	-12.1347
▁meditating	-12.1347
▁paroxysm	-12.1347
▁perplexed	-12.1347
▁piastres	-12.1347
▁portmanteau	-12.1347
▁response	-12.1347
▁sacrificing	-12.1347
▁senator	-12.1347
▁signifies	-12.1347
▁succor	-12.1347
▁transcript	-12.1347
▁unaccountable	-12.1347
▁veritable	-12.1347
IMPLI	-12.1347
Nonsense	-12.1347
Stranger	-12.1347
▁Empress	-12.1347
▁POSSIB	-12.1347
▁Rousseau	-12.1347
▁applaud	-12.1347
▁charities	-12.1347
▁cruise	-12.1347
▁deference	-12.1347
▁deplore	-12.1347
▁emerald	-12.1347
▁lecture	-12.1347
▁occupant	-12.1347
▁scourge	-12.1347
▁tattoo	-12.1347
▁umbrella	-12.1347
▁Blacas	-12.1347
▁Bridge	-12.1347
▁British	-12.1347
▁compilation	-12.1347
▁lavish	-12.1347
▁morsel	-12.1347
▁tremor	-12.1347
Hellenic	-12.1347
▁thud	-12.1347
▁deputy	-12.1347
▁insanity	-12.1347
Babylon	-12.1347
▁smack	-12.1347
▁cotton	-12.1347
▁imposing	-12.1347
▁gratify	-12.1347
▁feebly	-12.1347
▁Garden	-12.1347
▁patted	-12.1347
▁rabble	-12.1347
▁deceit	-12.1347
▁heightened	-12.1348
▁Titan	-12.1348
▁odious	-12.1348
Wonder	-12.1348
▁bequeath	-12.1348
▁flirt	-12.1348
▁dispel	-12.1348
▁indemni	-12.1348
▁affirmative	-12.1348
Women	-12.1348
▁roam	-12.1348
▁fiddle	-12.1348
Czar	-12.1348
nternational	-12.1348
▁Middle	-12.1348
▁sobbed	-12.1348
▁admission	-12.1349
Devil	-12.1349
▁oligarchical	-12.1349
▁intonation	-12.1354
Talk	-12.136
▁repute	-12.1362
▁discontinue	-12.1384
▁CHA	-12.1449
worn	-12.1581
found	-12.1583
sacrifice	-12.1584
control	-12.1584
Jonathan	-12.1584
Plato	-12.1586
▁declar	-12.1593
bill	-12.1615
spotted	-12.1619
▁polish	-12.1708
▁disperse	-12.1713
▁dirt	-12.1736
▁harp	-12.1747
EMARK	-12.1747
NCLUD	-12.1747
Unfortunately	-12.1747
▁Cephalus	-12.1747
▁DISC	-12.1747
▁Danube	-12.1747
▁Gorbeau	-12.1747
▁Restoration	-12.1747
▁Service	-12.1747
▁Special	-12.1747
▁Tydeus	-12.1747
▁approbation	-12.1747
▁audacity	-12.1747
▁bodice	-12.1747
▁calamity	-12.1747
▁contemporaries	-12.1747
▁defensive	-12.1747
▁disregard	-12.1747
▁economy	-12.1747
▁grotesque	-12.1747
▁guidance	-12.1747
▁identification	-12.1747
▁immensity	-12.1747
▁impertinent	-12.1747
▁intoxication	-12.1747
▁kerchief	-12.1747
▁memorable	-12.1747
▁merciful	-12.1747
▁nickname	-12.1747
▁nursing	-12.1747
▁opposing	-12.1747
▁recital	-12.1747
▁repugnance	-12.1747
▁sausage	-12.1747
▁scuttle	-12.1747
▁slammed	-12.1747
▁souvenir	-12.1747
▁splendour	-12.1747
▁sturdy	-12.1747
▁superhuman	-12.1747
▁testimony	-12.1747
▁tremulous	-12.1747
▁tunnel	-12.1747
▁undecided	-12.1747
▁voluntary	-12.1747
▁yawned	-12.1747
▁Governor	-12.1747
▁Hesiod	-12.1747
▁PUR	-12.1747
▁Teucer	-12.1747
▁adorable	-12.1747
▁commissary	-12.1747
▁confront	-12.1747
▁dainty	-12.1747
▁destination	-12.1747
▁displeasure	-12.1747
▁napkin	-12.1747
▁originator	-12.1747
▁preoccupation	-12.1747
▁retiring	-12.1747
▁veneration	-12.1747
▁Iván	-12.1747
▁bridal	-12.1747
▁glut	-12.1747
▁morose	-12.1747
Pierced	-12.1747
▁David	-12.1747
▁impelled	-12.1747
▁mingling	-12.1747
TUAL	-12.1747
▁pillage	-12.1747
▁sallow	-12.1747
▁Lodge	-12.1747
▁slice	-12.1747
▁Elsie	-12.1747
▁untimely	-12.1747
▁Halles	-12.1747
▁overturned	-12.1747
▁salad	-12.1747
▁depressed	-12.1747
▁pike	-12.1748
▁Scarcely	-12.1748
▁urging	-12.1748
▁Jones	-12.1748
▁Persian	-12.1748
▁gait	-12.1748
▁soaked	-12.1749
Third	-12.1749
▁recede	-12.1749
▁aspiration	-12.1749
‘	-12.175
ETTE	-12.1751
aemon	-12.1761
▁formula	-12.1762
Shake	-12.178
validity	-12.1819
Mind	-12.1867
▁discreet	-12.1886
nker	-12.1905
Whether	-12.2
Catherine	-12.2001
Beauchamp	-12.2001
English	-12.2001
bridge	-12.2001
something	-12.2002
taste	-12.2114
▁respond	-12.2125
▁convulsive	-12.2141
NDEMN	-12.2164
ARGUMENT	-12.2164
Assuredly	-12.2164
Empereur	-12.2164
GRAPH	-12.2164
ILITY	-12.2164
Kuzmínichna	-12.2164
LIGENCE	-12.2164
Leatherhead	-12.2164
STRICT	-12.2164
Vereshchágin	-12.2164
Volunteers	-12.2164
▁(80	-12.2164
▁Admiral	-12.2164
▁Derbyshire	-12.2164
▁Hundred	-12.2164
▁Hunsford	-12.2164
▁Oxford	-12.2164
▁Piazza	-12.2164
▁Pylian	-12.2164
▁alternative	-12.2164
▁anecdote	-12.2164
▁antagonist	-12.2164
▁apologize	-12.2164
▁applies	-12.2164
▁aristocracy	-12.2164
▁balcony	-12.2164
▁barracks	-12.2164
▁brigadier	-12.2164
▁choosing	-12.2164
▁coracle	-12.2164
▁egotism	-12.2164
▁exaggeration	-12.2164
▁funereal	-12.2164
▁garlic	-12.2164
▁gratified	-12.2164
▁hereditary	-12.2164
▁impassive	-12.2164
▁imperturbable	-12.2164
▁improbable	-12.2164
▁imprudent	-12.2164
▁indecision	-12.2164
▁infringement	-12.2164
▁insensible	-12.2164
▁irresistibly	-12.2164
▁junction	-12.2164
▁mechanism	-12.2164
▁narration	-12.2164
▁omnibus	-12.2164
▁poignant	-12.2164
▁portfolio	-12.2164
▁prodigal	-12.2164
▁prophecy	-12.2164
▁provincial	-12.2164
▁pulpit	-12.2164
▁reluctantly	-12.2164
▁telephone	-12.2164
▁unforeseen	-12.2164
▁unintelligible	-12.2164
▁unreasonable	-12.2164
▁vacancy	-12.2164
▁volcano	-12.2164
Armilly	-12.2164
FUND	-12.2164
▁SEND	-12.2164
▁artifice	-12.2164
▁deformity	-12.2164
▁dizzy	-12.2164
▁entrails	-12.2164
▁gutter	-12.2164
▁kinsman	-12.2164
▁lemonade	-12.2164
PLEAS	-12.2164
▁corporat	-12.2164
▁decanter	-12.2164
▁Field	-12.2164
▁Sailor	-12.2164
Literally	-12.2164
▁OWN	-12.2164
▁Police	-12.2164
▁athlete	-12.2164
▁gallows	-12.2164
▁tucked	-12.2164
▁Sicily	-12.2164
▁pallid	-12.2164
▁necklace	-12.2164
▁uncontroll	-12.2164
▁hemmed	-12.2164
▁overpowered	-12.2164
▁termination	-12.2164
Translat	-12.2164
LAF	-12.2164
Bohemia	-12.2164
▁hyper	-12.2164
▁redeem	-12.2164
▁unerring	-12.2164
▁postpone	-12.2164
▁dowry	-12.2164
▁farthest	-12.2164
▁nightmare	-12.2164
▁quilt	-12.2164
eluded	-12.2164
▁inherent	-12.2164
▁location	-12.2164
▁Giles	-12.2165
▁brushwood	-12.2165
▁wilful	-12.2165
anthrop	-12.2165
▁yelled	-12.2165
Wife	-12.2165
▁slapp	-12.2165
▁Volu	-12.2165
▁gems	-12.2165
ENTIAL	-12.2166
▁balm	-12.2168
▁conspire	-12.2169
Always	-12.2169
-62	-12.2179
secr	-12.2244
IRS	-12.2253
▁401	-12.2323
▁dialect	-12.2397
quarters	-12.2431
chief	-12.2435
eBook	-12.2436
Bonaparte	-12.2436
Christopher	-12.2436
Lucy	-12.2436
whale	-12.2436
Morcerf	-12.2436
Andrea	-12.2437
▁absorb	-12.256
▁elevate	-12.2564
▁legislat	-12.2586
orrupt	-12.2597
IDENT	-12.2598
▁coincide	-12.2598
Scarce	-12.2599
Bienvenu	-12.2599
Contributions	-12.2599
Prefect	-12.2599
ULYSSES	-12.2599
Undoubtedly	-12.2599
▁ACHILLES	-12.2599
▁Adventure	-12.2599
▁Brighton	-12.2599
▁Buchanan	-12.2599
▁Carfax	-12.2599
▁Council	-12.2599
▁Fontaine	-12.2599
▁Hippo	-12.2599
▁Mercutio	-12.2599
▁Thracian	-12.2599
▁Timaeus	-12.2599
▁Weybridge	-12.2599
▁accumulate	-12.2599
▁austere	-12.2599
▁cabbage	-12.2599
▁cesspool	-12.2599
▁channel	-12.2599
▁chastise	-12.2599
▁elastic	-12.2599
▁encouraging	-12.2599
▁expenditure	-12.2599
▁expensive	-12.2599
▁extensive	-12.2599
▁forcibly	-12.2599
▁generosity	-12.2599
▁hurricane	-12.2599
▁inaccessible	-12.2599
▁incoherent	-12.2599
▁inexhaustible	-12.2599
▁infallibly	-12.2599
▁paralyze	-12.2599
▁patriotic	-12.2599
▁plunging	-12.2599
▁shrewd	-12.2599
▁slanting	-12.2599
▁striding	-12.2599
▁stupor	-12.2599
▁submissive	-12.2599
▁superficial	-12.2599
▁sympathize	-12.2599
▁twelfth	-12.2599
▁unavailing	-12.2599
▁unearthly	-12.2599
▁unsuccessful	-12.2599
▁veteran	-12.2599
▁vodka	-12.2599
Suvórov	-12.2599
▁Invalides	-12.2599
▁Myrmidon	-12.2599
▁Safie	-12.2599
▁clamber	-12.2599
▁humiliation	-12.2599
▁liberated	-12.2599
▁oyster	-12.2599
▁Fox	-12.2599
▁effectually	-12.2599
▁overcame	-12.2599
▁bubble	-12.2599
▁mamma	-12.2599
▁nightingale	-12.2599
▁pervade	-12.2599
▁verbal	-12.2599
6-18	-12.2599
HOSE	-12.2599
▁(4)	-12.2599
▁mythology	-12.2599
Brevet	-12.2599
▁befallen	-12.2599
▁slash	-12.2599
▁coffer	-12.2599
▁massacre	-12.2599
▁resort	-12.2599
▁Thunderer	-12.2599
▁Olm	-12.2599
▁rebuke	-12.2599
▁notifies	-12.2599
▁essay	-12.2599
▁forbade	-12.2599
▁aloof	-12.2599
▁undone	-12.2599
Happy	-12.2599
▁subsist	-12.2599
Spring	-12.26
▁normal	-12.2602
Drink	-12.2602
Sweet	-12.2603
▁warranti	-12.2603
▁exhale	-12.2603
▁defile	-12.2604
ochus	-12.2607
Break	-12.2609
▁syn	-12.2611
▁Hyp	-12.2616
▁denote	-12.2652
WHI	-12.2665
Thick	-12.2749
Grantaire	-12.289
Monseigneur	-12.289
CAPULET	-12.289
Black	-12.289
Information	-12.289
license	-12.289
License	-12.2891
fleet	-12.2891
Gatsby	-12.2891
Literary	-12.2891
trademark	-12.2891
copyright	-12.2891
blue	-12.2891
Lady	-12.2891
consider	-12.2891
little	-12.2891
could	-12.2891
dditional	-12.2905
fingered	-12.3015
▁slack	-12.3031
▁shove	-12.3036
▁Philo	-12.3039
ompliance	-12.3052
▁philosophi	-12.3053
PROVIDE	-12.3053
▁Spaniard	-12.3053
▁Telamon	-12.3053
▁shrine	-12.3053
Citizen	-12.3053
Coleridge	-12.3053
Krásnoe	-12.3053
PRINCE	-12.3053
misunderstanding	-12.3053
▁Eliza	-12.3053
▁Japanese	-12.3053
▁Popolo	-12.3053
▁Royalist	-12.3053
▁Roylott	-12.3053
▁boudoir	-12.3053
▁citadel	-12.3053
▁clavichord	-12.3053
▁commerce	-12.3053
▁condescension	-12.3053
▁conspiracy	-12.3053
▁coquettish	-12.3053
▁cripple	-12.3053
▁dilapidated	-12.3053
▁embracing	-12.3053
▁exchanging	-12.3053
▁fertile	-12.3053
▁hypotheses	-12.3053
▁imprisonment	-12.3053
▁intensified	-12.3053
▁irreproachable	-12.3053
▁kitten	-12.3053
▁perseverance	-12.3053
▁possibilities	-12.3053
▁rallied	-12.3053
▁rebellion	-12.3053
▁reminiscence	-12.3053
▁sagacious	-12.3053
▁salutation	-12.3053
▁sequence	-12.3053
▁shako	-12.3053
▁transformation	-12.3053
▁tribute	-12.3053
▁upheld	-12.3053
▁vegetation	-12.3053
▁vivacity	-12.3053
▁Raévski	-12.3053
▁Varna	-12.3053
▁Venice	-12.3053
▁impotent	-12.3053
▁terminated	-12.3053
▁transaction	-12.3053
▁wicket	-12.3053
▁budge	-12.3053
▁conventional	-12.3053
▁deluge	-12.3053
▁placid	-12.3053
▁firmament	-12.3053
▁repaid	-12.3053
▁tentacle	-12.3053
▁windlass	-12.3053
▁Dawn	-12.3053
▁Smoke	-12.3053
▁cutlass	-12.3053
▁endurance	-12.3053
▁shipowner	-12.3053
▁turf	-12.3053
▁investigate	-12.3053
▁copse	-12.3053
▁pagan	-12.3053
▁restoration	-12.3053
▁sermon	-12.3053
▁undressed	-12.3053
▁scrambl	-12.3053
▁desiring	-12.3053
▁presentiment	-12.3053
▁starving	-12.3053
▁overlooked	-12.3053
prehensi	-12.3054
▁chalk	-12.3054
▁wedded	-12.3054
▁fawn	-12.3054
▁infinity	-12.3054
▁insane	-12.3054
Bravo	-12.3054
Strong	-12.3054
Woman	-12.3054
nternal	-12.3054
Fool	-12.3055
Rise	-12.3056
Honoré	-12.3062
Better	-12.3062
▁abstain	-12.3072
Loud	-12.3078
Dark	-12.3146
cross	-12.3217
Else	-12.3323
Doctor	-12.3366
Jondrette	-12.3367
school	-12.3367
Vasíli	-12.3367
except	-12.3367
Hector	-12.3367
heap	-12.3374
116	-12.3394
▁recite	-12.34
▁trait	-12.3489
▁smash	-12.3491
operate	-12.3498
▁festiv	-12.3529
Hendríkhovna	-12.353
SAMPSON	-12.353
Twelve	-12.353
▁Azelma	-12.353
▁Drissa	-12.353
▁Mantua	-12.353
▁Michaud	-12.353
▁Radney	-12.353
▁Robespierre	-12.353
▁audacious	-12.353
▁baffled	-12.353
▁billiard	-12.353
▁chemical	-12.353
▁connexion	-12.353
▁dauntless	-12.353
▁deceiving	-12.353
▁defiance	-12.353
▁degenerate	-12.353
▁diameter	-12.353
▁disastrous	-12.353
▁embattled	-12.353
▁epaulets	-12.353
▁excursion	-12.353
▁exhort	-12.353
▁fascination	-12.353
▁fervent	-12.353
▁fumbling	-12.353
▁fundamental	-12.353
▁geometrical	-12.353
▁glistened	-12.353
▁glistening	-12.353
▁gypsies	-12.353
▁imploring	-12.353
▁ingenuous	-12.353
▁juniper	-12.353
▁magnanimous	-12.353
▁masculine	-12.353
▁muscular	-12.353
▁politician	-12.353
▁preliminary	-12.353
▁premises	-12.353
▁preserving	-12.353
▁removal	-12.353
▁ruthless	-12.353
▁samovar	-12.353
▁scrutiny	-12.353
▁separating	-12.353
▁shrubbery	-12.353
▁skirmish	-12.353
▁threadbare	-12.353
▁ticket	-12.353
▁tribunal	-12.353
▁twinkle	-12.353
▁unconcern	-12.353
▁unhealthy	-12.353
▁unlimited	-12.353
▁unmoved	-12.353
▁varieties	-12.353
Pardieu	-12.353
▁champion	-12.353
▁draft	-12.353
▁embers	-12.353
▁follies	-12.353
▁melody	-12.353
▁prairie	-12.353
Ground	-12.353
▁nettle	-12.353
▁swoon	-12.353
▁flask	-12.353
▁jib	-12.353
▁momentarily	-12.353
▁ripple	-12.353
▁profane	-12.353
ographical	-12.353
▁hatchet	-12.353
▁underwent	-12.353
▁unlocked	-12.353
▁dedicate	-12.353
▁pauper	-12.353
----”	-12.353
▁cleft	-12.353
▁vocal	-12.353
▁Hosmer	-12.353
woven	-12.353
▁cadet	-12.353
Hullo	-12.353
▁gilt	-12.353
▁muslin	-12.353
▁Tartar	-12.353
▁ignore	-12.353
Command	-12.3545
▁Bank	-12.3553
▁poise	-12.3568
“	-12.3575
[28	-12.3576
Step	-12.3663
Starbuck	-12.3867
Wickham	-12.3867
people	-12.3867
▁gird	-12.3954
uaker	-12.396
▁cuirass	-12.403
Drubetskóy	-12.403
Possibly	-12.403
enunciation	-12.403
▁BECOME	-12.403
▁Balagá	-12.403
▁Beaucaire	-12.403
▁Dummling	-12.403
▁Florence	-12.403
▁Government	-12.403
▁Hellenes	-12.403
▁Ivánovna	-12.403
▁Lafayette	-12.403
▁Mestienne	-12.403
▁Myrtle	-12.403
▁Ogilvy	-12.403
▁Redoubt	-12.403
▁Redruth	-12.403
▁Scylla	-12.403
▁Shakespeare	-12.403
▁Tepelini	-12.403
▁Voyage	-12.403
▁Vyázma	-12.403
▁Windibank	-12.403
▁archangel	-12.403
▁assumption	-12.403
▁bewilderment	-12.403
▁concluding	-12.403
▁convenience	-12.403
▁destructive	-12.403
▁drummer	-12.403
▁fanciful	-12.403
▁flavor	-12.403
▁flèches	-12.403
▁foreboding	-12.403
▁imperceptibly	-12.403
▁inconceivable	-12.403
▁indescribably	-12.403
▁industrious	-12.403
▁liquor	-12.403
▁maneuvers	-12.403
▁meagre	-12.403
▁misshapen	-12.403
▁multiplied	-12.403
▁municipal	-12.403
▁negotiation	-12.403
▁overspread	-12.403
▁pedestrian	-12.403
▁pepper	-12.403
▁platform	-12.403
▁predestined	-12.403
▁pretension	-12.403
▁sarcastic	-12.403
▁saviour	-12.403
▁scrupulous	-12.403
▁scullery	-12.403
▁securing	-12.403
▁strategic	-12.403
▁stumbling	-12.403
▁unavoidable	-12.403
▁unbuttoned	-12.403
▁unobserved	-12.403
▁verdure	-12.403
Cloud	-12.403
▁Niemen	-12.403
▁compartment	-12.403
▁desolation	-12.403
▁dishonest	-12.403
▁engaging	-12.403
▁hawser	-12.403
▁indolent	-12.403
▁obstruct	-12.403
▁palpable	-12.403
▁pitiable	-12.403
▁respiration	-12.403
▁adroit	-12.403
▁encamped	-12.403
▁graze	-12.403
JEAN	-12.403
▁Throne	-12.403
▁carnage	-12.403
▁choir	-12.403
▁squat	-12.403
▁shoal	-12.403
▁temperament	-12.403
▁crossroads	-12.403
▁injuries	-12.403
▁SERV	-12.403
▁capstan	-12.403
▁enmity	-12.403
▁landowner	-12.403
▁sloping	-12.403
▁groping	-12.403
▁humbly	-12.403
▁salary	-12.403
▁noisily	-12.403
▁undressing	-12.403
Amidst	-12.403
▁busied	-12.403
▁utility	-12.403
▁dominate	-12.403
▁implies	-12.403
SOME	-12.403
▁Power	-12.403
▁durst	-12.403
Anything	-12.403
Proceed	-12.4031
Credit	-12.4031
Short	-12.4032
Proud	-12.4037
Thunder	-12.4054
Pull	-12.4065
Haydée	-12.4393
convict	-12.4393
Bertuccio	-12.4393
Arthur	-12.4393
Socrates	-12.4393
built	-12.4393
number	-12.4393
John	-12.4393
Petersburg	-12.4393
especially	-12.4393
girl	-12.4393
gotten	-12.4408
wonted	-12.4501
▁stammer	-12.4517
▁infidel	-12.4556
Approach	-12.4556
COSETTE	-12.4556
Claquesous	-12.4556
Constantinople	-12.4556
Cottleston	-12.4556
GAVROCHE	-12.4556
POOH	-12.4556
Peisistratus	-12.4556
▁Academy	-12.4556
▁Amélie	-12.4556
▁BATTLE	-12.4556
▁Brussels	-12.4556
▁Caroline	-12.4556
▁Chicago	-12.4556
▁College	-12.4556
▁Company	-12.4556
▁Dahlia	-12.4556
▁HOUSE	-12.4556
▁Olympian	-12.4556
▁Simois	-12.4556
▁Vicomte	-12.4556
▁adjacent	-12.4556
▁album	-12.4556
▁baptism	-12.4556
▁beckoned	-12.4556
▁brawny	-12.4556
▁champagne	-12.4556
▁circumference	-12.4556
▁concentration	-12.4556
▁confiding	-12.4556
▁contemplating	-12.4556
▁contrivance	-12.4556
▁convincing	-12.4556
▁cradle	-12.4556
▁delirious	-12.4556
▁deserving	-12.4556
▁destitute	-12.4556
▁dimensions	-12.4556
▁elevating	-12.4556
▁encircle	-12.4556
▁engraved	-12.4556
▁enumerate	-12.4556
▁estimation	-12.4556
▁fiacre	-12.4556
▁grammar	-12.4556
▁greedy	-12.4556
▁guiding	-12.4556
▁handwriting	-12.4556
▁hypothesis	-12.4556
▁imprudence	-12.4556
▁intermittent	-12.4556
▁invariable	-12.4556
▁irrational	-12.4556
▁irritable	-12.4556
▁magnanimity	-12.4556
▁masonry	-12.4556
▁multiply	-12.4556
▁palisade	-12.4556
▁parapet	-12.4556
▁proximity	-12.4556
▁relinquish	-12.4556
▁retract	-12.4556
▁societies	-12.4556
▁throbbing	-12.4556
▁troubling	-12.4556
▁unfathomable	-12.4556
▁unnoticed	-12.4556
▁vibration	-12.4556
▁visibly	-12.4556
▁voluntarily	-12.4556
separable	-12.4556
▁Sultan	-12.4556
▁agonizing	-12.4556
▁arguing	-12.4556
▁despoil	-12.4556
▁mutiny	-12.4556
▁nimble	-12.4556
▁oscillat	-12.4556
▁perpetrat	-12.4556
▁program	-12.4556
▁wrung	-12.4556
▁Joyce	-12.4556
▁sledge	-12.4556
▁Palais	-12.4556
▁enigmatical	-12.4556
▁psalm	-12.4556
▁vertebr	-12.4556
▁gentry	-12.4556
▁spake	-12.4556
▁mutilat	-12.4556
▁vertical	-12.4556
Glinda	-12.4556
▁editor	-12.4556
▁counsellor	-12.4556
▁Satan	-12.4556
▁imprint	-12.4556
▁bawl	-12.4556
Flora	-12.4557
▁tilt	-12.4557
▁devoi	-12.4563
Retire	-12.4569
▁preface	-12.4608
squeezed	-12.4752
educated	-12.4948
Sherlock	-12.4948
People	-12.4948
Julie	-12.4948
carriage	-12.4948
Daisy	-12.4949
Anatole	-12.4949
Greece	-12.4949
pearl	-12.5037
ADVENTURE	-12.5111
Bernardines	-12.5111
Cyclops	-12.5111
Dimmler	-12.5111
Fifteen	-12.5111
HECTOR	-12.5111
Konovnítsyn	-12.5111
TYBALT	-12.5111
uesnel	-12.5111
éphine	-12.5111
▁Bedford	-12.5111
▁Benbow	-12.5111
▁Bougon	-12.5111
▁Gospel	-12.5111
▁Progress	-12.5111
▁Ramballe	-12.5111
▁Rapunzel	-12.5111
▁Slovak	-12.5111
▁Treasure	-12.5111
▁Venetian	-12.5111
▁World	-12.5111
▁abhorrence	-12.5111
▁acknowledging	-12.5111
▁acquisition	-12.5111
▁administration	-12.5111
▁afloat	-12.5111
▁alphabet	-12.5111
▁apparatus	-12.5111
▁bespoke	-12.5111
▁calculating	-12.5111
▁cauldron	-12.5111
▁certificate	-12.5111
▁climate	-12.5111
▁communion	-12.5111
▁comprehensive	-12.5111
▁conservatory	-12.5111
▁consummate	-12.5111
▁continent	-12.5111
▁conversion	-12.5111
▁crumpled	-12.5111
▁disinherit	-12.5111
▁embodied	-12.5111
▁entrenchment	-12.5111
▁exposing	-12.5111
▁exposure	-12.5111
▁extravagant	-12.5111
▁extremities	-12.5111
▁fabulous	-12.5111
▁fascinated	-12.5111
▁forefinger	-12.5111
▁fusillade	-12.5111
▁grumbling	-12.5111
▁huddled	-12.5111
▁imminent	-12.5111
▁inflexible	-12.5111
▁invaluable	-12.5111
▁marauder	-12.5111
▁mushroom	-12.5111
▁obstinacy	-12.5111
▁ominous	-12.5111
▁paralytic	-12.5111
▁paraphrase	-12.5111
▁plentiful	-12.5111
▁potatoes	-12.5111
▁presumption	-12.5111
▁prohibited	-12.5111
▁promontory	-12.5111
▁recommence	-12.5111
▁resolving	-12.5111
▁sepulchral	-12.5111
▁strategy	-12.5111
▁submerged	-12.5111
▁taciturn	-12.5111
▁transfigured	-12.5111
▁traversing	-12.5111
▁troyka	-12.5111
▁unspeakable	-12.5111
▁vouchsafe	-12.5111
▁whitewashed	-12.5111
▁ceasing	-12.5111
▁dangling	-12.5111
▁fencing	-12.5111
▁impulsive	-12.5111
▁instantaneous	-12.5111
▁premature	-12.5111
▁promenade	-12.5111
▁sluggish	-12.5111
▁strenuous	-12.5111
▁swoop	-12.5111
▁trigger	-12.5111
Confused	-12.5111
Instantly	-12.5111
Military	-12.5111
▁Hollow	-12.5111
▁dejection	-12.5111
▁espied	-12.5111
▁homage	-12.5111
▁probity	-12.5111
▁decrease	-12.5111
▁flitted	-12.5111
▁identifi	-12.5111
▁paltry	-12.5111
▁upbraid	-12.5111
▁burglar	-12.5111
▁bomb	-12.5111
▁enroll	-12.5111
▁implant	-12.5111
▁devout	-12.5111
▁dominion	-12.5111
appalled	-12.5111
▁fanatic	-12.5112
▁chaff	-12.5112
▁waft	-12.5112
▁chuckle	-12.5112
flake	-12.5132
compelling	-12.5248
▁squeeze	-12.5485
pocket	-12.5537
Alpátych	-12.5537
Alexander	-12.5537
Professor	-12.5537
feeling	-12.5537
Darcy	-12.5537
believe	-12.5538
▁depriv	-12.5566
▁jovial	-12.57
▁whiff	-12.57
Excellent	-12.57
Straight	-12.57
pudding	-12.57
▁Avenue	-12.57
▁Chertsey	-12.57
▁GOOD	-12.57
▁Galatz	-12.57
▁Gérard	-12.57
j	-12.722
